{
  "version": "1.0",
  "truncation": null,
  "padding": null,
  "added_tokens": [
    {
      "id": 0,
      "content": "<|endoftext|>",
      "single_word": false,
      "lstrip": false,
      "rstrip": false,
      "normalized": false,
      "special": true
    },
    {
      "id": 1,
      "content": "<|padding|>",
      "single_word": false,
      "lstrip": false,
      "rstrip": false,
      "normalized": false,
      "special": true
    },
    {
      "id": 2,
      "content": "<|im_start|>",
      "single_word": false,
      "lstrip": false,
      "rstrip": false,
      "normalized": false,
      "special": true
    },
    {
      "id": 3,
      "content": "<|im_end|>",
      "single_word": false,
      "lstrip": false,
      "rstrip": false,
      "normalized": false,
      "special": true
    },
    {
      "id": 32000,
      "content": "ciao",
      "single_word": false,
      "lstrip": false,
      "rstrip": false,
      "normalized": false,
      "special": false
    },
    {
      "id": 32001,
      "content": "buongiorno",
      "single_word": false,
      "lstrip": false,
      "rstrip": false,
      "normalized": false,
      "special": false
    },
    {
      "id": 32002,
      "content": "buonasera",
      "single_word": false,
      "lstrip": false,
      "rstrip": false,
      "normalized": false,
      "special": false
    },
    {
      "id": 32003,
      "content": "buonanotte",
      "single_word": false,
      "lstrip": false,
      "rstrip": false,
      "normalized": false,
      "special": false
    },
    {
      "id": 32004,
      "content": "arrivederci",
      "single_word": false,
      "lstrip": false,
      "rstrip": false,
      "normalized": false,
      "special": false
    },
    {
      "id": 32005,
      "content": "salve",
      "single_word": false,
      "lstrip": false,
      "rstrip": false,
      "normalized": false,
      "special": false
    },
    {
      "id": 32006,
      "content": "grazie",
      "single_word": false,
      "lstrip": false,
      "rstrip": false,
      "normalized": false,
      "special": false
    },
    {
      "id": 32007,
      "content": "prego",
      "single_word": false,
      "lstrip": false,
      "rstrip": false,
      "normalized": false,
      "special": false
    },
    {
      "id": 32008,
      "content": "scusa",
      "single_word": false,
      "lstrip": false,
      "rstrip": false,
      "normalized": false,
      "special": false
    },
    {
      "id": 32009,
      "content": "scusi",
      "single_word": false,
      "lstrip": false,
      "rstrip": false,
      "normalized": false,
      "special": false
    },
    {
      "id": 32010,
      "content": "permesso",
      "single_word": false,
      "lstrip": false,
      "rstrip": false,
      "normalized": false,
      "special": false
    },
    {
      "id": 32011,
      "content": "questo",
      "single_word": false,
      "lstrip": false,
      "rstrip": false,
      "normalized": false,
      "special": false
    },
    {
      "id": 32012,
      "content": "questa",
      "single_word": false,
      "lstrip": false,
      "rstrip": false,
      "normalized": false,
      "special": false
    },
    {
      "id": 32013,
      "content": "quello",
      "single_word": false,
      "lstrip": false,
      "rstrip": false,
      "normalized": false,
      "special": false
    },
    {
      "id": 32014,
      "content": "quella",
      "single_word": false,
      "lstrip": false,
      "rstrip": false,
      "normalized": false,
      "special": false
    },
    {
      "id": 32015,
      "content": "qualcosa",
      "single_word": false,
      "lstrip": false,
      "rstrip": false,
      "normalized": false,
      "special": false
    },
    {
      "id": 32016,
      "content": "qualcuno",
      "single_word": false,
      "lstrip": false,
      "rstrip": false,
      "normalized": false,
      "special": false
    },
    {
      "id": 32017,
      "content": "andare",
      "single_word": false,
      "lstrip": false,
      "rstrip": false,
      "normalized": false,
      "special": false
    },
    {
      "id": 32018,
      "content": "potere",
      "single_word": false,
      "lstrip": false,
      "rstrip": false,
      "normalized": false,
      "special": false
    },
    {
      "id": 32019,
      "content": "volere",
      "single_word": false,
      "lstrip": false,
      "rstrip": false,
      "normalized": false,
      "special": false
    },
    {
      "id": 32020,
      "content": "dovere",
      "single_word": false,
      "lstrip": false,
      "rstrip": false,
      "normalized": false,
      "special": false
    },
    {
      "id": 32021,
      "content": "sapere",
      "single_word": false,
      "lstrip": false,
      "rstrip": false,
      "normalized": false,
      "special": false
    },
    {
      "id": 32022,
      "content": "stare",
      "single_word": false,
      "lstrip": false,
      "rstrip": false,
      "normalized": false,
      "special": false
    },
    {
      "id": 32023,
      "content": "dare",
      "single_word": false,
      "lstrip": false,
      "rstrip": false,
      "normalized": false,
      "special": false
    },
    {
      "id": 32024,
      "content": "parlare",
      "single_word": false,
      "lstrip": false,
      "rstrip": false,
      "normalized": false,
      "special": false
    },
    {
      "id": 32025,
      "content": "pensare",
      "single_word": false,
      "lstrip": false,
      "rstrip": false,
      "normalized": false,
      "special": false
    },
    {
      "id": 32026,
      "content": "quindi",
      "single_word": false,
      "lstrip": false,
      "rstrip": false,
      "normalized": false,
      "special": false
    },
    {
      "id": 32027,
      "content": "mentre",
      "single_word": false,
      "lstrip": false,
      "rstrip": false,
      "normalized": false,
      "special": false
    },
    {
      "id": 32028,
      "content": "quando",
      "single_word": false,
      "lstrip": false,
      "rstrip": false,
      "normalized": false,
      "special": false
    },
    {
      "id": 32029,
      "content": "perche",
      "single_word": false,
      "lstrip": false,
      "rstrip": false,
      "normalized": false,
      "special": false
    },
    {
      "id": 32030,
      "content": "ancora",
      "single_word": false,
      "lstrip": false,
      "rstrip": false,
      "normalized": false,
      "special": false
    },
    {
      "id": 32031,
      "content": "sempre",
      "single_word": false,
      "lstrip": false,
      "rstrip": false,
      "normalized": false,
      "special": false
    },
    {
      "id": 32032,
      "content": "proprio",
      "single_word": false,
      "lstrip": false,
      "rstrip": false,
      "normalized": false,
      "special": false
    },
    {
      "id": 32033,
      "content": "davvero",
      "single_word": false,
      "lstrip": false,
      "rstrip": false,
      "normalized": false,
      "special": false
    },
    {
      "id": 32034,
      "content": "veramente",
      "single_word": false,
      "lstrip": false,
      "rstrip": false,
      "normalized": false,
      "special": false
    },
    {
      "id": 32035,
      "content": "problema",
      "single_word": false,
      "lstrip": false,
      "rstrip": false,
      "normalized": false,
      "special": false
    },
    {
      "id": 32036,
      "content": "lavoro",
      "single_word": false,
      "lstrip": false,
      "rstrip": false,
      "normalized": false,
      "special": false
    },
    {
      "id": 32037,
      "content": "mondo",
      "single_word": false,
      "lstrip": false,
      "rstrip": false,
      "normalized": false,
      "special": false
    },
    {
      "id": 32038,
      "content": "benissimo",
      "single_word": false,
      "lstrip": false,
      "rstrip": false,
      "normalized": false,
      "special": false
    },
    {
      "id": 32039,
      "content": "perfetto",
      "single_word": false,
      "lstrip": false,
      "rstrip": false,
      "normalized": false,
      "special": false
    },
    {
      "id": 32040,
      "content": "esatto",
      "single_word": false,
      "lstrip": false,
      "rstrip": false,
      "normalized": false,
      "special": false
    },
    {
      "id": 32041,
      "content": "giusto",
      "single_word": false,
      "lstrip": false,
      "rstrip": false,
      "normalized": false,
      "special": false
    },
    {
      "id": 32042,
      "content": "certo",
      "single_word": false,
      "lstrip": false,
      "rstrip": false,
      "normalized": false,
      "special": false
    }
  ],
  "normalizer": null,
  "pre_tokenizer": {
    "type": "ByteLevel",
    "add_prefix_space": false,
    "trim_offsets": true,
    "use_regex": true
  },
  "post_processor": {
    "type": "ByteLevel",
    "add_prefix_space": true,
    "trim_offsets": false,
    "use_regex": true
  },
  "decoder": {
    "type": "ByteLevel",
    "add_prefix_space": true,
    "trim_offsets": true,
    "use_regex": true
  },
  "model": {
    "type": "BPE",
    "dropout": null,
    "unk_token": null,
    "continuing_subword_prefix": null,
    "end_of_word_suffix": null,
    "fuse_unk": false,
    "byte_fallback": false,
    "ignore_merges": false,
    "vocab": {
      "<|endoftext|>": 0,
      "<|padding|>": 1,
      "<|im_start|>": 2,
      "<|im_end|>": 3,
      "!": 4,
      "\"": 5,
      "#": 6,
      "$": 7,
      "%": 8,
      "&": 9,
      "'": 10,
      "(": 11,
      ")": 12,
      "*": 13,
      "+": 14,
      ",": 15,
      "-": 16,
      ".": 17,
      "/": 18,
      "0": 19,
      "1": 20,
      "2": 21,
      "3": 22,
      "4": 23,
      "5": 24,
      "6": 25,
      "7": 26,
      "8": 27,
      "9": 28,
      ":": 29,
      ";": 30,
      "<": 31,
      "=": 32,
      ">": 33,
      "?": 34,
      "@": 35,
      "A": 36,
      "B": 37,
      "C": 38,
      "D": 39,
      "E": 40,
      "F": 41,
      "G": 42,
      "H": 43,
      "I": 44,
      "J": 45,
      "K": 46,
      "L": 47,
      "M": 48,
      "N": 49,
      "O": 50,
      "P": 51,
      "Q": 52,
      "R": 53,
      "S": 54,
      "T": 55,
      "U": 56,
      "V": 57,
      "W": 58,
      "X": 59,
      "Y": 60,
      "Z": 61,
      "[": 62,
      "\\": 63,
      "]": 64,
      "^": 65,
      "_": 66,
      "`": 67,
      "a": 68,
      "b": 69,
      "c": 70,
      "d": 71,
      "e": 72,
      "f": 73,
      "g": 74,
      "h": 75,
      "i": 76,
      "j": 77,
      "k": 78,
      "l": 79,
      "m": 80,
      "n": 81,
      "o": 82,
      "p": 83,
      "q": 84,
      "r": 85,
      "s": 86,
      "t": 87,
      "u": 88,
      "v": 89,
      "w": 90,
      "x": 91,
      "y": 92,
      "z": 93,
      "{": 94,
      "|": 95,
      "}": 96,
      "~": 97,
      "¡": 98,
      "¢": 99,
      "£": 100,
      "¤": 101,
      "¥": 102,
      "¦": 103,
      "§": 104,
      "¨": 105,
      "©": 106,
      "ª": 107,
      "«": 108,
      "¬": 109,
      "®": 110,
      "¯": 111,
      "°": 112,
      "±": 113,
      "²": 114,
      "³": 115,
      "´": 116,
      "µ": 117,
      "¶": 118,
      "·": 119,
      "¸": 120,
      "¹": 121,
      "º": 122,
      "»": 123,
      "¼": 124,
      "½": 125,
      "¾": 126,
      "¿": 127,
      "À": 128,
      "Á": 129,
      "Â": 130,
      "Ã": 131,
      "Ä": 132,
      "Å": 133,
      "Æ": 134,
      "Ç": 135,
      "È": 136,
      "É": 137,
      "Ê": 138,
      "Ë": 139,
      "Ì": 140,
      "Í": 141,
      "Î": 142,
      "Ï": 143,
      "Ð": 144,
      "Ñ": 145,
      "Ò": 146,
      "Ó": 147,
      "Ô": 148,
      "Õ": 149,
      "Ö": 150,
      "×": 151,
      "Ø": 152,
      "Ù": 153,
      "Ú": 154,
      "Û": 155,
      "Ü": 156,
      "Ý": 157,
      "Þ": 158,
      "ß": 159,
      "à": 160,
      "á": 161,
      "â": 162,
      "ã": 163,
      "ä": 164,
      "å": 165,
      "æ": 166,
      "ç": 167,
      "è": 168,
      "é": 169,
      "ê": 170,
      "ë": 171,
      "ì": 172,
      "í": 173,
      "î": 174,
      "ï": 175,
      "ð": 176,
      "ñ": 177,
      "ò": 178,
      "ó": 179,
      "ô": 180,
      "õ": 181,
      "ö": 182,
      "÷": 183,
      "ø": 184,
      "ù": 185,
      "ú": 186,
      "û": 187,
      "ü": 188,
      "ý": 189,
      "þ": 190,
      "ÿ": 191,
      "Ā": 192,
      "ā": 193,
      "Ă": 194,
      "ă": 195,
      "Ą": 196,
      "ą": 197,
      "Ć": 198,
      "ć": 199,
      "Ĉ": 200,
      "ĉ": 201,
      "Ċ": 202,
      "ċ": 203,
      "Č": 204,
      "č": 205,
      "Ď": 206,
      "ď": 207,
      "Đ": 208,
      "đ": 209,
      "Ē": 210,
      "ē": 211,
      "Ĕ": 212,
      "ĕ": 213,
      "Ė": 214,
      "ė": 215,
      "Ę": 216,
      "ę": 217,
      "Ě": 218,
      "ě": 219,
      "Ĝ": 220,
      "ĝ": 221,
      "Ğ": 222,
      "ğ": 223,
      "Ġ": 224,
      "ġ": 225,
      "Ģ": 226,
      "ģ": 227,
      "Ĥ": 228,
      "ĥ": 229,
      "Ħ": 230,
      "ħ": 231,
      "Ĩ": 232,
      "ĩ": 233,
      "Ī": 234,
      "ī": 235,
      "Ĭ": 236,
      "ĭ": 237,
      "Į": 238,
      "į": 239,
      "İ": 240,
      "ı": 241,
      "Ĳ": 242,
      "ĳ": 243,
      "Ĵ": 244,
      "ĵ": 245,
      "Ķ": 246,
      "ķ": 247,
      "ĸ": 248,
      "Ĺ": 249,
      "ĺ": 250,
      "Ļ": 251,
      "ļ": 252,
      "Ľ": 253,
      "ľ": 254,
      "Ŀ": 255,
      "ŀ": 256,
      "Ł": 257,
      "ł": 258,
      "Ń": 259,
      "in": 260,
      "Ġd": 261,
      "er": 262,
      "on": 263,
      "Ġa": 264,
      "Ġc": 265,
      "Ġs": 266,
      "en": 267,
      "re": 268,
      "Ġt": 269,
      "at": 270,
      "Ġp": 271,
      "an": 272,
      "es": 273,
      "al": 274,
      "el": 275,
      "or": 276,
      "ti": 277,
      "ar": 278,
      "Ġl": 279,
      "Ġdi": 280,
      "he": 281,
      "it": 282,
      "Ġf": 283,
      "ic": 284,
      "Ġe": 285,
      "Ġm": 286,
      "Ġin": 287,
      "ing": 288,
      "il": 289,
      "ol": 290,
      "is": 291,
      "un": 292,
      "ro": 293,
      "ion": 294,
      "ent": 295,
      "ra": 296,
      "Ġan": 297,
      "Ġn": 298,
      "Ġo": 299,
      "om": 300,
      "ell": 301,
      "ed": 302,
      "et": 303,
      "Ġb": 304,
      "ri": 305,
      "Ġw": 306,
      "ia": 307,
      "to": 308,
      "Ġthe": 309,
      "as": 310,
      "Ġand": 311,
      "ta": 312,
      "us": 313,
      "io": 314,
      "Ġg": 315,
      "Ġcon": 316,
      "ec": 317,
      "Ġun": 318,
      "os": 319,
      "Ġv": 320,
      "ĠS": 321,
      "ur": 322,
      "te": 323,
      "Ġre": 324,
      "Ġal": 325,
      "ĠC": 326,
      "Ġto": 327,
      "am": 328,
      "qu": 329,
      "Ġ(": 330,
      "le": 331,
      "Ġh": 332,
      "im": 333,
      "Ġdell": 334,
      "Ġla": 335,
      "ter": 336,
      "ul": 337,
      "ĠA": 338,
      "Ġof": 339,
      "ĠM": 340,
      "Ġ1": 341,
      "Ġil": 342,
      "zion": 343,
      "ĠT": 344,
      "ig": 345,
      "ato": 346,
      "id": 347,
      "Ġth": 348,
      "ac": 349,
      "ess": 350,
      "ers": 351,
      "ut": 352,
      "em": 353,
      "Ġcom": 354,
      "ĠP": 355,
      "ĠI": 356,
      "Ġst": 357,
      "Ġsu": 358,
      "Ġpro": 359,
      "ve": 360,
      "Ġdel": 361,
      "ĠB": 362,
      "ĠL": 363,
      "ag": 364,
      "Ġper": 365,
      "ch": 366,
      "and": 367,
      "ale": 368,
      "pp": 369,
      "la": 370,
      "eg": 371,
      "ce": 372,
      "res": 373,
      "Ġqu": 374,
      "ci": 375,
      "li": 376,
      "ation": 377,
      "ir": 378,
      "zione": 379,
      "--": 380,
      "tion": 381,
      "Ġche": 382,
      "ot": 383,
      "ĠR": 384,
      "ĠG": 385,
      "ow": 386,
      "ĠD": 387,
      "are": 388,
      "ere": 389,
      "iv": 390,
      "Ã¨": 391,
      "Ġ2": 392,
      "ĠF": 393,
      "Ġdella": 394,
      "ad": 395,
      "Ġr": 396,
      "op": 397,
      "Ġde": 398,
      "ente": 399,
      "ly": 400,
      "ĠÃ¨": 401,
      "um": 402,
      "tic": 403,
      "od": 404,
      "ali": 405,
      "ov": 406,
      "Ãł": 407,
      "Ġfor": 408,
      "Ġy": 409,
      "enti": 410,
      "end": 411,
      "ata": 412,
      "ano": 413,
      "Ġda": 414,
      "og": 415,
      "cc": 416,
      "ni": 417,
      "ate": 418,
      "Ġle": 419,
      "ĠN": 420,
      "Ġ19": 421,
      "ĠE": 422,
      "ff": 423,
      "Ġyo": 424,
      "Ġor": 425,
      "di": 426,
      "Ġex": 427,
      "00": 428,
      "Ġwh": 429,
      "ap": 430,
      "th": 431,
      "ono": 432,
      "ati": 433,
      "ma": 434,
      "ine": 435,
      "ts": 436,
      "tr": 437,
      "zz": 438,
      "tu": 439,
      "Ġpar": 440,
      "Ġsp": 441,
      "ie": 442,
      "Ġas": 443,
      "ith": 444,
      "ĠH": 445,
      "Ġuna": 446,
      "ug": 447,
      "Ġi": 448,
      "ver": 449,
      "ore": 450,
      "ĠW": 451,
      "Ġnel": 452,
      "ica": 453,
      "no": 454,
      "all": 455,
      "oc": 456,
      "Ġch": 457,
      "ab": 458,
      "ass": 459,
      "Ġsi": 460,
      "âĢ": 461,
      "per": 462,
      "ond": 463,
      "ese": 464,
      "Ġri": 465,
      "Ġdis": 466,
      "Ġtra": 467,
      "Ġwith": 468,
      "Ġcomp": 469,
      "ĠĊ": 470,
      "Ġ-": 471,
      "Ġit": 472,
      "Ġon": 473,
      "Ġsc": 474,
      "Ġes": 475,
      "av": 476,
      "Ġad": 477,
      "ity": 478,
      "Ġim": 479,
      "ĠV": 480,
      "ori": 481,
      "ens": 482,
      "ard": 483,
      "ist": 484,
      "ran": 485,
      "ke": 486,
      "----": 487,
      "Ã²": 488,
      "Ġnell": 489,
      "ib": 490,
      "Ġma": 491,
      "ile": 492,
      "Ġdal": 493,
      "enz": 494,
      "ud": 495,
      "uc": 496,
      "ĠĠ": 497,
      "ĠO": 498,
      "ne": 499,
      "Ġall": 500,
      "olo": 501,
      "'s": 502,
      "ort": 503,
      "ue": 504,
      "era": 505,
      "mo": 506,
      "ment": 507,
      "19": 508,
      "Ġpi": 509,
      "bb": 510,
      "ione": 511,
      "Ġat": 512,
      "fic": 513,
      "pl": 514,
      "ome": 515,
      "est": 516,
      "Ġ\"": 517,
      "ĠJ": 518,
      "Ġne": 519,
      "Ġar": 520,
      "ay": 521,
      "one": 522,
      "tiv": 523,
      "so": 524,
      "Ġus": 525,
      "Ġthat": 526,
      "ant": 527,
      "Ġha": 528,
      "Ġdei": 529,
      "tri": 530,
      "che": 531,
      "se": 532,
      "ill": 533,
      "ĠU": 534,
      "Ġis": 535,
      "itÃł": 536,
      "),": 537,
      "Ġra": 538,
      "Ġpri": 539,
      "Ġreg": 540,
      "igh": 541,
      "Ġyou": 542,
      "ĠTh": 543,
      "ĠIn": 544,
      "Ġbe": 545,
      "co": 546,
      "ino": 547,
      "Ġnon": 548,
      "ĠâĢ": 549,
      "Ġab": 550,
      "ge": 551,
      "Ġse": 552,
      "ito": 553,
      "na": 554,
      "ico": 555,
      "Ġen": 556,
      "gi": 557,
      "st": 558,
      "ene": 559,
      "Ġso": 560,
      "Ġpres": 561,
      "ip": 562,
      "out": 563,
      "Ġcan": 564,
      "Ġpre": 565,
      "iz": 566,
      "ugh": 567,
      "ure": 568,
      "Ġcome": 569,
      "ies": 570,
      "va": 571,
      "Ġcol": 572,
      "iti": 573,
      "rom": 574,
      "ations": 575,
      "ord": 576,
      "ero": 577,
      "01": 578,
      "Ġalla": 579,
      "ento": 580,
      "und": 581,
      "ide": 582,
      "Ġyour": 583,
      "Ġco": 584,
      "Ġapp": 585,
      "Ġu": 586,
      "Ġimp": 587,
      "Ġwe": 588,
      "Ġli": 589,
      "tro": 590,
      "ando": 591,
      "Ġinter": 592,
      "for": 593,
      "ĠK": 594,
      "Ġpos": 595,
      "Ġinc": 596,
      "ina": 597,
      "Ġcons": 598,
      "tions": 599,
      "ante": 600,
      "rat": 601,
      "si": 602,
      "Ã¹": 603,
      "zioni": 604,
      "Ġ200": 605,
      "enza": 606,
      "ect": 607,
      "Ġsh": 608,
      "Ġres": 609,
      "Ġtheir": 610,
      "amp": 611,
      "ari": 612,
      "ces": 613,
      "azione": 614,
      "ini": 615,
      "gio": 616,
      "Ġdelle": 617,
      "Ġnella": 618,
      "ents": 619,
      "ich": 620,
      "ici": 621,
      "ĠCh": 622,
      "ĠâĢĵ": 623,
      "Ġgi": 624,
      "olog": 625,
      "get": 626,
      "her": 627,
      "king": 628,
      "ura": 629,
      "Ġcos": 630,
      "oli": 631,
      "ance": 632,
      "mente": 633,
      "ical": 634,
      "Ġques": 635,
      "ong": 636,
      "ita": 637,
      "ven": 638,
      "ĠLa": 639,
      "Ġsec": 640,
      "ĠpiÃ¹": 641,
      "**": 642,
      "ani": 643,
      "ice": 644,
      "ind": 645,
      "Ġdo": 646,
      "ĠAn": 647,
      "ys": 648,
      "ui": 649,
      "ten": 650,
      "lo": 651,
      "Ġpo": 652,
      "Ġac": 653,
      "Ġed": 654,
      "Ġser": 655,
      "tor": 656,
      ").": 657,
      "tra": 658,
      "mp": 659,
      "Ġlo": 660,
      "Ġfu": 661,
      "rit": 662,
      "Ġcor": 663,
      "erm": 664,
      "vol": 665,
      "ario": 666,
      "ĠAl": 667,
      "Ġcre": 668,
      "ep": 669,
      "ach": 670,
      "Ã©": 671,
      "Ġwor": 672,
      "anti": 673,
      "ĠIl": 674,
      "Ġess": 675,
      "tre": 676,
      "emp": 677,
      "Ġsono": 678,
      "ana": 679,
      "Ġanche": 680,
      "Ġsuo": 681,
      "Ġcl": 682,
      "Ġ3": 683,
      "amente": 684,
      "Ġsta": 685,
      "Ġsul": 686,
      "ĠThe": 687,
      "ating": 688,
      "ang": 689,
      "vers": 690,
      "uto": 691,
      "Ġhe": 692,
      "emb": 693,
      "Ġind": 694,
      "ence": 695,
      "Ġthis": 696,
      "ks": 697,
      "ting": 698,
      "esso": 699,
      "Ġag": 700,
      "Ġthey": 701,
      "Ġacc": 702,
      "Ġ201": 703,
      "Ġins": 704,
      "fer": 705,
      "Ġby": 706,
      "ally": 707,
      "--------": 708,
      "Ġabout": 709,
      "Ġdue": 710,
      "Ġris": 711,
      "Ġare": 712,
      "gra": 713,
      "Ġk": 714,
      "chi": 715,
      "ons": 716,
      "lio": 717,
      "Ġam": 718,
      "ĠMar": 719,
      "Il": 720,
      "ru": 721,
      "Ġmod": 722,
      "Ġel": 723,
      "Ġthese": 724,
      "tim": 725,
      "rough": 726,
      "Al": 727,
      "Ġcomm": 728,
      "Ġpers": 729,
      "ca": 730,
      "ss": 731,
      "ight": 732,
      "form": 733,
      "ust": 734,
      "ello": 735,
      "Ġgen": 736,
      "oro": 737,
      "egli": 738,
      "Ġj": 739,
      "anz": 740,
      "als": 741,
      "ista": 742,
      "over": 743,
      "Ġinto": 744,
      "In": 745,
      "Ġme": 746,
      "ili": 747,
      "Ġgli": 748,
      "Ġav": 749,
      "ary": 750,
      "Ġcar": 751,
      "Ġlike": 752,
      "Ġpu": 753,
      "leg": 754,
      "etto": 755,
      "Ġdec": 756,
      "Ġfrom": 757,
      "eri": 758,
      "ign": 759,
      "Ġund": 760,
      "ite": 761,
      "opo": 762,
      "ress": 763,
      "ola": 764,
      "ret": 765,
      "Ġpr": 766,
      "ole": 767,
      "Ġsua": 768,
      "Ã¬": 769,
      "ms": 770,
      "La": 771,
      "tÃł": 772,
      "ella": 773,
      "arn": 774,
      "iss": 775,
      "Ġour": 776,
      "ĠY": 777,
      "Ġfe": 778,
      "Ġdiff": 779,
      "Ġspec": 780,
      "Ġven": 781,
      "ose": 782,
      "lic": 783,
      "ob": 784,
      "cia": 785,
      "endo": 786,
      "lia": 787,
      "Ġvi": 788,
      "Ġvol": 789,
      "Ġman": 790,
      "Ġpl": 791,
      "ast": 792,
      "ire": 793,
      "Ġstr": 794,
      "ondo": 795,
      "Ġseg": 796,
      "vel": 797,
      "rac": 798,
      "ful": 799,
      "ĠUn": 800,
      "Ġgu": 801,
      "amenti": 802,
      "our": 803,
      "Ġhow": 804,
      "ult": 805,
      "Ġdalla": 806,
      "Ġ199": 807,
      "Ġmar": 808,
      "Ġera": 809,
      "Ġdes": 810,
      "use": 811,
      "Ġcui": 812,
      "Ġmet": 813,
      "uld": 814,
      "mb": 815,
      "age": 816,
      "Ġass": 817,
      "Ġmag": 818,
      "up": 819,
      "Ġ4": 820,
      "Ġro": 821,
      "ote": 822,
      "Ġfac": 823,
      "tand": 824,
      "Ġester": 825,
      "ors": 826,
      "Ġtut": 827,
      "ung": 828,
      "que": 829,
      "Ġcap": 830,
      "ues": 831,
      "Ġparte": 832,
      "ities": 833,
      "ub": 834,
      "ans": 835,
      "Ġgra": 836,
      "Ġ18": 837,
      "Col": 838,
      "ĠLe": 839,
      "Ġmat": 840,
      "ely": 841,
      "rop": 842,
      "les": 843,
      "ech": 844,
      "Ġprop": 845,
      "ris": 846,
      "art": 847,
      "cip": 848,
      "Ġset": 849,
      "ane": 850,
      "ost": 851,
      "ele": 852,
      "Ġdur": 853,
      "ated": 854,
      "ain": 855,
      "ora": 856,
      "erstand": 857,
      "ativ": 858,
      "able": 859,
      "tin": 860,
      "ase": 861,
      "ings": 862,
      "tica": 863,
      "ack": 864,
      "ry": 865,
      "Ġfin": 866,
      "Ġconc": 867,
      "Ġesterni": 868,
      "legamenti": 869,
      "tain": 870,
      "Ġprov": 871,
      "mer": 872,
      "rov": 873,
      "ther": 874,
      "Ġever": 875,
      "Ġprima": 876,
      "ble": 877,
      "Collegamenti": 878,
      "Ġbet": 879,
      "Ġval": 880,
      "Ġsoci": 881,
      "Ġanni": 882,
      "oll": 883,
      "uzione": 884,
      "ime": 885,
      "ron": 886,
      "Ġter": 887,
      "Ġte": 888,
      "do": 889,
      "Ġthem": 890,
      "Ġrec": 891,
      "tive": 892,
      "lus": 893,
      "duc": 894,
      "Ġfam": 895,
      "Ġthrough": 896,
      "ĠIt": 897,
      "zza": 898,
      "mi": 899,
      "Ġsome": 900,
      "ory": 901,
      "ves": 902,
      "titu": 903,
      "ĠCon": 904,
      "atore": 905,
      "Ġsucc": 906,
      "ioni": 907,
      "Ġinf": 908,
      "anno": 909,
      "ace": 910,
      "now": 911,
      "if": 912,
      "Ġmed": 913,
      "Ġsol": 914,
      "ld": 915,
      "round": 916,
      "ĠĠĠĠ": 917,
      "Ġric": 918,
      "Ġdegli": 919,
      "ak": 920,
      "ilm": 921,
      "vent": 922,
      "ok": 923,
      "Ġleg": 924,
      "Ġcomun": 925,
      "Ġ5": 926,
      "Ġup": 927,
      "con": 928,
      "ĠSt": 929,
      "Ġexpl": 930,
      "Ġeff": 931,
      "ĠQ": 932,
      "osi": 933,
      "sp": 934,
      "we": 935,
      "ture": 936,
      "Ġrel": 937,
      "ative": 938,
      "Ġai": 939,
      "Ġmon": 940,
      "200": 941,
      "elp": 942,
      "Ġno": 943,
      "ific": 944,
      "Ġregia": 945,
      "otto": 946,
      "Ġcit": 947,
      "eng": 948,
      "rand": 949,
      "vis": 950,
      "Ġdisc": 951,
      "Ġproget": 952,
      "Ġlearn": 953,
      "Ġpe": 954,
      "Ġnum": 955,
      "Ġits": 956,
      "atter": 957,
      "Ġstato": 958,
      "tag": 959,
      "ood": 960,
      "fia": 961,
      "II": 962,
      "ĠSan": 963,
      "Ġwill": 964,
      "Ġdiffer": 965,
      "peri": 966,
      "par": 967,
      "ĠCom": 968,
      "Ġtre": 969,
      "oni": 970,
      "ann": 971,
      "Ġlet": 972,
      "Ġdopo": 973,
      "Ġbu": 974,
      "ual": 975,
      "Ġaff": 976,
      "amb": 977,
      "'t": 978,
      "Ġessere": 979,
      "Ġcas": 980,
      "Ġhelp": 981,
      "ions": 982,
      "ild": 983,
      "Ġsuch": 984,
      "ĠAr": 985,
      "Ġnu": 986,
      "ced": 987,
      "vi": 988,
      "cun": 989,
      "Ġgio": 990,
      "Ġpass": 991,
      "Ġmol": 992,
      "Ġ6": 993,
      "ern": 994,
      "Ġ|": 995,
      "Ġposs": 996,
      "tis": 997,
      "ph": 998,
      "ider": 999,
      "Ġsim": 1000,
      "oth": 1001,
      "Ġca": 1002,
      "me": 1003,
      "ric": 1004,
      "fe": 1005,
      "esi": 1006,
      "ous": 1007,
      "Ġperson": 1008,
      "Ġout": 1009,
      "Ġprin": 1010,
      "ĠWh": 1011,
      "de": 1012,
      "Ġstud": 1013,
      "Ġconf": 1014,
      "Ġfun": 1015,
      "Ġ'": 1016,
      "Ġop": 1017,
      "Âł": 1018,
      "ĠThis": 1019,
      "old": 1020,
      "anto": 1021,
      "gh": 1022,
      "Ġitali": 1023,
      "ection": 1024,
      "elf": 1025,
      "Ġpot": 1026,
      "Ġgro": 1027,
      "Ġbec": 1028,
      "trib": 1029,
      "min": 1030,
      "Ġwhen": 1031,
      "Ġment": 1032,
      "Ġmin": 1033,
      "uta": 1034,
      "Ġunderstand": 1035,
      "Ġ198": 1036,
      "Ġcamp": 1037,
      "Note": 1038,
      "ppo": 1039,
      "Ġhave": 1040,
      "erv": 1041,
      "Ġknow": 1042,
      "Ġcent": 1043,
      "Ġwhat": 1044,
      "ward": 1045,
      "ater": 1046,
      "ulti": 1047,
      "tura": 1048,
      "aria": 1049,
      "Ġot": 1050,
      "ential": 1051,
      "lay": 1052,
      "orn": 1053,
      "erc": 1054,
      "ame": 1055,
      "zi": 1056,
      "tore": 1057,
      "Ġmore": 1058,
      "ĠSp": 1059,
      "ement": 1060,
      "van": 1061,
      "Ġevery": 1062,
      "Ġer": 1063,
      "Ġparti": 1064,
      "Ġmus": 1065,
      "Ġwhile": 1066,
      "Ġpropri": 1067,
      "tico": 1068,
      "asc": 1069,
      "Ġvis": 1070,
      "ates": 1071,
      "Ġ||": 1072,
      "ĠX": 1073,
      "ĠĊĠĊ": 1074,
      "ĠFran": 1075,
      "uri": 1076,
      "oy": 1077,
      "ath": 1078,
      "iche": 1079,
      "ility": 1080,
      "Ġfig": 1081,
      "Ġclass": 1082,
      "Ġdivers": 1083,
      "almente": 1084,
      "ede": 1085,
      "ins": 1086,
      "hip": 1087,
      "ĠGi": 1088,
      "Ġsuccess": 1089,
      "ou": 1090,
      "Ġform": 1091,
      "elli": 1092,
      "Ġvers": 1093,
      "Ġcommun": 1094,
      "Ġtemp": 1095,
      "Ġtime": 1096,
      "erg": 1097,
      "ivid": 1098,
      "ish": 1099,
      "ences": 1100,
      "ara": 1101,
      "uss": 1102,
      "Ġimport": 1103,
      "att": 1104,
      "Ġev": 1105,
      "Ġdall": 1106,
      "Ġtech": 1107,
      "Ġexp": 1108,
      "Ġsegu": 1109,
      "Ġserie": 1110,
      "ena": 1111,
      "zionale": 1112,
      "omet": 1113,
      "Ġdove": 1114,
      "Ġresp": 1115,
      "Ġalle": 1116,
      "Ġtran": 1117,
      "ween": 1118,
      "Ġover": 1119,
      "ural": 1120,
      "lud": 1121,
      "Ġviene": 1122,
      "tional": 1123,
      "ĠCar": 1124,
      "Ġsig": 1125,
      "wn": 1126,
      "Ġloc": 1127,
      "ĠBy": 1128,
      "ĠEn": 1129,
      "Ġloro": 1130,
      "bbe": 1131,
      "Ġpart": 1132,
      "Altri": 1133,
      "Ġpubb": 1134,
      "ular": 1135,
      "alia": 1136,
      "arch": 1137,
      "Ġcir": 1138,
      "mento": 1139,
      "Ġconte": 1140,
      "inc": 1141,
      "Ġpop": 1142,
      "ĠFor": 1143,
      "Ġbetween": 1144,
      "Nel": 1145,
      "Ġquesto": 1146,
      "Ġprogetti": 1147,
      "ures": 1148,
      "ggi": 1149,
      "oss": 1150,
      "Ġgener": 1151,
      "ars": 1152,
      "etta": 1153,
      "ound": 1154,
      "ople": 1155,
      "oria": 1156,
      "oltre": 1157,
      "ower": 1158,
      "ona": 1159,
      "Ġprod": 1160,
      "Ġrep": 1161,
      "ise": 1162,
      "Ġsub": 1163,
      "ĠAd": 1164,
      "uti": 1165,
      "Ġwas": 1166,
      "oci": 1167,
      "Ġnuov": 1168,
      "imento": 1169,
      "Ġfilm": 1170,
      "Ġent": 1171,
      "Ġwithin": 1172,
      "ily": 1173,
      "lex": 1174,
      "sc": 1175,
      "Ġliv": 1176,
      "ĠRe": 1177,
      "cess": 1178,
      "ĠDe": 1179,
      "Ġcal": 1180,
      "yp": 1181,
      "Ġbas": 1182,
      "ton": 1183,
      "Ġtr": 1184,
      "ĠNe": 1185,
      "Ġ197": 1186,
      "ĠPar": 1187,
      "Ġcontin": 1188,
      "atto": 1189,
      "eno": 1190,
      "anza": 1191,
      "Ġnew": 1192,
      "Ġta": 1193,
      "amento": 1194,
      "zo": 1195,
      "Ġinv": 1196,
      "agine": 1197,
      "lu": 1198,
      "ould": 1199,
      "Ġworld": 1200,
      "ters": 1201,
      "Ġprof": 1202,
      "Ġwhere": 1203,
      "##": 1204,
      "Ġwho": 1205,
      "Ġthere": 1206,
      "ĠAs": 1207,
      "ze": 1208,
      "ature": 1209,
      "alth": 1210,
      "The": 1211,
      "imo": 1212,
      "ĠZ": 1213,
      "Ġher": 1214,
      "Ġ7": 1215,
      "ough": 1216,
      "ĠNel": 1217,
      "atori": 1218,
      "Ġph": 1219,
      "Ġindivid": 1220,
      "Ġlib": 1221,
      "resent": 1222,
      "ĠMa": 1223,
      "Ġone": 1224,
      "Ġdet": 1225,
      "Ġsigni": 1226,
      "ĠcittÃł": 1227,
      "pport": 1228,
      "Ġuno": 1229,
      "Ġalcun": 1230,
      "olare": 1231,
      "zzo": 1232,
      "ive": 1233,
      "Ġmor": 1234,
      "ivers": 1235,
      "atti": 1236,
      "Ġmentre": 1237,
      "Ġother": 1238,
      "itu": 1239,
      "Ġaut": 1240,
      "cep": 1241,
      "201": 1242,
      "arm": 1243,
      "Ġcul": 1244,
      "aggio": 1245,
      "ects": 1246,
      "Ġexperi": 1247,
      "ogra": 1248,
      "Ġbut": 1249,
      "tical": 1250,
      "----------------": 1251,
      "Ġcri": 1252,
      "Ġprincip": 1253,
      "Ġfra": 1254,
      "``": 1255,
      "199": 1256,
      "ays": 1257,
      "An": 1258,
      "Ġpol": 1259,
      "Ġpeople": 1260,
      "Ġprimo": 1261,
      "etÃł": 1262,
      "let": 1263,
      "Ġlav": 1264,
      "ĠRom": 1265,
      "go": 1266,
      "ism": 1267,
      "ics": 1268,
      "erra": 1269,
      "Ġpun": 1270,
      "Ġnei": 1271,
      "Ġorg": 1272,
      "Ġid": 1273,
      "riv": 1274,
      "Ġfur": 1275,
      "Ġpartic": 1276,
      "Ġsa": 1277,
      "Ġhist": 1278,
      "Ġinclud": 1279,
      "yste": 1280,
      "Ġwhich": 1281,
      "Ġorig": 1282,
      "Ġsolo": 1283,
      "iva": 1284,
      "its": 1285,
      "Ġduring": 1286,
      "ĠSh": 1287,
      "ness": 1288,
      "tili": 1289,
      "igli": 1290,
      "arono": 1291,
      "ational": 1292,
      "ian": 1293,
      "Ġprac": 1294,
      "Ġgrand": 1295,
      "velop": 1296,
      "ĠMon": 1297,
      "Ġvenne": 1298,
      "Ġmight": 1299,
      "Ġep": 1300,
      "Ġtur": 1301,
      "Ġchi": 1302,
      "iste": 1303,
      "Ġmo": 1304,
      "Ġconsider": 1305,
      "enze": 1306,
      "Ġsal": 1307,
      "onda": 1308,
      "ty": 1309,
      "grafia": 1310,
      "Ġ9": 1311,
      "Ġquale": 1312,
      "istic": 1313,
      "Ġpoi": 1314,
      "Ġmil": 1315,
      "Ġneed": 1316,
      "Ġeven": 1317,
      "Ġchall": 1318,
      "inter": 1319,
      "be": 1320,
      "Ġcer": 1321,
      "Ġsulla": 1322,
      "bor": 1323,
      "Ġusing": 1324,
      "Ġcontr": 1325,
      "Ġ=": 1326,
      "tep": 1327,
      "iam": 1328,
      "Ġ196": 1329,
      "ft": 1330,
      "Ġsur": 1331,
      "Ġdisp": 1332,
      "ll": 1333,
      "Ġcontro": 1334,
      "ende": 1335,
      "Ġsignific": 1336,
      "alizz": 1337,
      "Ġtradi": 1338,
      "tern": 1339,
      "omin": 1340,
      "Ġnelle": 1341,
      "urop": 1342,
      "Ġquali": 1343,
      "esc": 1344,
      "ments": 1345,
      "Ġterm": 1346,
      "Ġdef": 1347,
      "Ġfa": 1348,
      "Ġ20": 1349,
      "Ġocc": 1350,
      "Ġif": 1351,
      "man": 1352,
      "ece": 1353,
      "Ġ17": 1354,
      "Ġiniz": 1355,
      "Ġcall": 1356,
      "ÃĪ": 1357,
      "Ġstat": 1358,
      "arious": 1359,
      "ories": 1360,
      "Ġ15": 1361,
      "ĠĠĠ": 1362,
      "orno": 1363,
      "Ġserv": 1364,
      "Ġmay": 1365,
      "ber": 1366,
      "Ġ**": 1367,
      "Ġpa": 1368,
      "elle": 1369,
      "adre": 1370,
      "own": 1371,
      "Ġver": 1372,
      "fore": 1373,
      "Ġdem": 1374,
      "Ġadd": 1375,
      "pr": 1376,
      "ends": 1377,
      "zia": 1378,
      "ining": 1379,
      "Ġob": 1380,
      "oh": 1381,
      "Ġoper": 1382,
      "ick": 1383,
      "ross": 1384,
      "act": 1385,
      "18": 1386,
      "essa": 1387,
      "mm": 1388,
      "Ġcould": 1389,
      "ĠPro": 1390,
      "Ġnot": 1391,
      "Ġplay": 1392,
      "Ġquando": 1393,
      "Ġlead": 1394,
      "Ġave": 1395,
      "Ġstag": 1396,
      "Ġdifferent": 1397,
      "Ġtras": 1398,
      "da": 1399,
      "hing": 1400,
      "ink": 1401,
      "embre": 1402,
      "tribu": 1403,
      "Ġhis": 1404,
      "wor": 1405,
      "ett": 1406,
      "Ġeng": 1407,
      "rel": 1408,
      "Ġvarious": 1409,
      "Ġsk": 1410,
      "Ġsci": 1411,
      "fica": 1412,
      "orta": 1413,
      "toria": 1414,
      "agn": 1415,
      "ology": 1416,
      "Ġ8": 1417,
      "uring": 1418,
      "20": 1419,
      "Ġqual": 1420,
      "ĠWe": 1421,
      "isc": 1422,
      "Ġhum": 1423,
      "Ġbo": 1424,
      "Ġhas": 1425,
      "edi": 1426,
      "Ġhealth": 1427,
      "Ġany": 1428,
      "usa": 1429,
      "imp": 1430,
      "enn": 1431,
      "ĠHow": 1432,
      "oring": 1433,
      "Ġsqu": 1434,
      "Ġwork": 1435,
      "Ġrit": 1436,
      "xt": 1437,
      "ements": 1438,
      "etti": 1439,
      "Ġnome": 1440,
      "Ġpresent": 1441,
      "udi": 1442,
      "Ġvia": 1443,
      "ines": 1444,
      "ĠSe": 1445,
      "Ġna": 1446,
      "gg": 1447,
      "Ġz": 1448,
      "eme": 1449,
      "com": 1450,
      "..": 1451,
      "atura": 1452,
      "cio": 1453,
      "int": 1454,
      "vano": 1455,
      "Ġgo": 1456,
      "Ġdata": 1457,
      "vil": 1458,
      "ample": 1459,
      "ĠThese": 1460,
      "Ġconn": 1461,
      "ga": 1462,
      "Ġsuper": 1463,
      "Ġsia": 1464,
      "ima": 1465,
      "Ġgre": 1466,
      "ala": 1467,
      "Ġsitu": 1468,
      "Ġ10": 1469,
      "iglia": 1470,
      "Ġprocess": 1471,
      "Ġke": 1472,
      "Ġreal": 1473,
      "Ġequ": 1474,
      "iet": 1475,
      "indi": 1476,
      "ial": 1477,
      "ling": 1478,
      "ck": 1479,
      "Ġfi": 1480,
      "ct": 1481,
      "osa": 1482,
      "osto": 1483,
      "Ġbre": 1484,
      "Ġdevelop": 1485,
      "ĠCo": 1486,
      "other": 1487,
      "els": 1488,
      "bre": 1489,
      "Ġtempo": 1490,
      "Ġperio": 1491,
      "Ġfri": 1492,
      "Ġaltri": 1493,
      "Ġfino": 1494,
      "Ġens": 1495,
      "ĠAnd": 1496,
      "lie": 1497,
      "isti": 1498,
      "app": 1499,
      "uch": 1500,
      "ĊĊ": 1501,
      "Ġthose": 1502,
      "ols": 1503,
      "ade": 1504,
      "ĠSc": 1505,
      "Ġalso": 1506,
      "Ġ16": 1507,
      "Ġquesta": 1508,
      "Ġfre": 1509,
      "Ġsotto": 1510,
      "ĠEx": 1511,
      "Ġpoli": 1512,
      "ices": 1513,
      "Ġmaggio": 1514,
      "orto": 1515,
      "ever": 1516,
      "Ġvolta": 1517,
      "Ġeach": 1518,
      "Ġ`": 1519,
      "ĠGu": 1520,
      "Ġidenti": 1521,
      "Ġfos": 1522,
      "zio": 1523,
      "Ġstesso": 1524,
      "apter": 1525,
      "irst": 1526,
      "Ġaround": 1527,
      "Ġdon": 1528,
      "Ġutili": 1529,
      "arsi": 1530,
      "Ġstata": 1531,
      "led": 1532,
      "Un": 1533,
      "ĠPer": 1534,
      "Ġtw": 1535,
      "Ġinvol": 1536,
      "\",": 1537,
      "Ġdiret": 1538,
      "ruppo": 1539,
      "Ġing": 1540,
      "ĠPa": 1541,
      "ava": 1542,
      "enc": 1543,
      "ette": 1544,
      "Ġallow": 1545,
      "ties": 1546,
      "Ġsecolo": 1547,
      "icc": 1548,
      "Ġnov": 1549,
      "ense": 1550,
      "sieme": 1551,
      "land": 1552,
      "Ġexplore": 1553,
      "Ġsyste": 1554,
      "Ġsecondo": 1555,
      "isce": 1556,
      "Ġrom": 1557,
      "tere": 1558,
      "ua": 1559,
      "pi": 1560,
      "Ġsuoi": 1561,
      "Ġcin": 1562,
      "po": 1563,
      "tivo": 1564,
      "Ġsti": 1565,
      "Ġdai": 1566,
      "bo": 1567,
      "Ġrapp": 1568,
      "Ġtit": 1569,
      "aliz": 1570,
      "Ġboth": 1571,
      "ĠReg": 1572,
      "Ġdello": 1573,
      "Ġchalleng": 1574,
      "isod": 1575,
      "Ġanc": 1576,
      "iesa": 1577,
      "Ġsm": 1578,
      "Ġimm": 1579,
      "Ġinform": 1580,
      "Ġtes": 1581,
      "yn": 1582,
      "Ġquella": 1583,
      "Ġlung": 1584,
      "ember": 1585,
      "Ġasp": 1586,
      "Ġdesign": 1587,
      "ĠMil": 1588,
      "Ġincre": 1589,
      "wards": 1590,
      "Ġref": 1591,
      "lica": 1592,
      "Ġog": 1593,
      "ont": 1594,
      "empre": 1595,
      "Ġspecific": 1596,
      "Ġthan": 1597,
      "ĠHe": 1598,
      "eld": 1599,
      "fter": 1600,
      "Ġrem": 1601,
      "Ġsch": 1602,
      "Ġcare": 1603,
      "Ġint": 1604,
      "Ġcomune": 1605,
      "Ġcat": 1606,
      "uro": 1607,
      "Ġgover": 1608,
      "chÃ©": 1609,
      "Ġunderstanding": 1610,
      "iron": 1611,
      "ange": 1612,
      ".,": 1613,
      "âĢĻ": 1614,
      "less": 1615,
      "Ġdurante": 1616,
      "Ġvita": 1617,
      "orio": 1618,
      "cial": 1619,
      "uce": 1620,
      "ĠGio": 1621,
      "Ġhanno": 1622,
      "Ġmov": 1623,
      "Ġ195": 1624,
      "Ġ194": 1625,
      "Ġ&": 1626,
      "ective": 1627,
      "ĠBe": 1628,
      "ai": 1629,
      "Ġcostr": 1630,
      "Ġwould": 1631,
      "ction": 1632,
      "Ġtrans": 1633,
      "Ġfine": 1634,
      "Ġlife": 1635,
      "Ġvit": 1636,
      "Ġhigh": 1637,
      "bum": 1638,
      "Ġproble": 1639,
      "Ġbel": 1640,
      "Ġcalled": 1641,
      "egn": 1642,
      "ĠQu": 1643,
      "Ġcoll": 1644,
      "Ġposi": 1645,
      "ismo": 1646,
      "via": 1647,
      "ffici": 1648,
      "Ġuse": 1649,
      "Ġsee": 1650,
      "red": 1651,
      "Âº": 1652,
      "Ġback": 1653,
      "Ġbr": 1654,
      "Ġtri": 1655,
      "Ġpossib": 1656,
      "anc": 1657,
      "Ġseguito": 1658,
      "ave": 1659,
      "asi": 1660,
      "Ġmolto": 1661,
      "Ġfran": 1662,
      "198": 1663,
      "Ġuni": 1664,
      "Ġchar": 1665,
      "Ġsos": 1666,
      "Ġcreate": 1667,
      "ĠSo": 1668,
      "Ġtrat": 1669,
      "Ġcomplex": 1670,
      "ets": 1671,
      "Ġsop": 1672,
      "Ġpower": 1673,
      "inale": 1674,
      "Ġquello": 1675,
      "hi": 1676,
      "ecess": 1677,
      "gether": 1678,
      "Ġpubblic": 1679,
      "osc": 1680,
      "Ġoff": 1681,
      "ĠIs": 1682,
      "Ġcomb": 1683,
      "tures": 1684,
      "ida": 1685,
      "Ġmany": 1686,
      "Ġrip": 1687,
      "Ġancora": 1688,
      "Ġlearning": 1689,
      "Ġaveva": 1690,
      "tab": 1691,
      "ques": 1692,
      "ark": 1693,
      "Ġtip": 1694,
      "Ġquindi": 1695,
      "Ġnumero": 1696,
      "Ġshe": 1697,
      "Ġtogether": 1698,
      "teg": 1699,
      "Ġrisp": 1700,
      "omething": 1701,
      "Ġlit": 1702,
      "Ġmain": 1703,
      "Ġindividu": 1704,
      "Ġjust": 1705,
      "ĠThey": 1706,
      "Ġesp": 1707,
      "magine": 1708,
      "ently": 1709,
      "utto": 1710,
      "Ġsempre": 1711,
      "Le": 1712,
      "abil": 1713,
      "iblio": 1714,
      "ĠSu": 1715,
      "Ġide": 1716,
      "Ġstagione": 1717,
      "oper": 1718,
      "rig": 1719,
      "Ġerano": 1720,
      "tice": 1721,
      "Ġread": 1722,
      "Ġinst": 1723,
      "oto": 1724,
      "thers": 1725,
      "Ġsing": 1726,
      "Ġdiverse": 1727,
      "Ġtyp": 1728,
      "ather": 1729,
      "Ġown": 1730,
      "Ġtro": 1731,
      "viron": 1732,
      "ns": 1733,
      "Ġemp": 1734,
      "Ġsomething": 1735,
      "Ġ14": 1736,
      "Ġtechn": 1737,
      "Ġtor": 1738,
      "ving": 1739,
      "Ġexample": 1740,
      "Ġgrow": 1741,
      "Ġinizi": 1742,
      "ectiv": 1743,
      "Ġfind": 1744,
      "Ġdra": 1745,
      "fi": 1746,
      "Ġcoun": 1747,
      "ious": 1748,
      "Ġ12": 1749,
      "Ġanal": 1750,
      "Ġline": 1751,
      "Ġtal": 1752,
      "ĠpuÃ²": 1753,
      "mon": 1754,
      "ĠMan": 1755,
      "Ġdep": 1756,
      "egu": 1757,
      "org": 1758,
      "Ġrigh": 1759,
      "Ġinterp": 1760,
      "Ġport": 1761,
      "gli": 1762,
      "Th": 1763,
      "Ġfeel": 1764,
      "Ġci": 1765,
      "ĠCol": 1766,
      "ĠYou": 1767,
      "Con": 1768,
      "aggi": 1769,
      "Ġepisod": 1770,
      "ĠTV": 1771,
      "000": 1772,
      "ights": 1773,
      "Ġmondo": 1774,
      "Ġmodo": 1775,
      "Ġmusic": 1776,
      "ected": 1777,
      "Ġitaliano": 1778,
      "ney": 1779,
      "ape": 1780,
      "Ġprom": 1781,
      "Ġfurono": 1782,
      "orp": 1783,
      "Ġshare": 1784,
      "ollow": 1785,
      "Ġappro": 1786,
      "Ġinn": 1787,
      "Ġrequ": 1788,
      "Ġdim": 1789,
      "ex": 1790,
      "Ġstor": 1791,
      "ying": 1792,
      "za": 1793,
      "Ġorgan": 1794,
      "avi": 1795,
      "arly": 1796,
      "Ġdecis": 1797,
      "ĠAmer": 1798,
      "ocus": 1799,
      "ĠRoma": 1800,
      "ved": 1801,
      "ecip": 1802,
      "Ġcirc": 1803,
      "ety": 1804,
      "Ġgruppo": 1805,
      "Ġexam": 1806,
      "izio": 1807,
      "edic": 1808,
      "Ġcorrel": 1809,
      "Ġabit": 1810,
      "gu": 1811,
      "Ġnecess": 1812,
      "ree": 1813,
      "\".": 1814,
      "zie": 1815,
      "Ġunique": 1816,
      "Ġtwo": 1817,
      "ras": 1818,
      "ĠOr": 1819,
      "As": 1820,
      "Ġdire": 1821,
      "ĠJoh": 1822,
      "Ġfond": 1823,
      "urope": 1824,
      "ples": 1825,
      "istr": 1826,
      "Ġbefore": 1827,
      "omo": 1828,
      "Ġforma": 1829,
      "ppa": 1830,
      "vo": 1831,
      "omp": 1832,
      "ren": 1833,
      "Ġguerra": 1834,
      "ĠSi": 1835,
      "yth": 1836,
      "Ġwere": 1837,
      "Ġartis": 1838,
      "Ġabb": 1839,
      "Ġgrande": 1840,
      "mpor": 1841,
      "ultural": 1842,
      "Ġprogra": 1843,
      "Ġprot": 1844,
      "ĠcosÃ¬": 1845,
      "eti": 1846,
      "Ġoften": 1847,
      "esse": 1848,
      "anta": 1849,
      "Ġ13": 1850,
      "Ġmom": 1851,
      "Ġsin": 1852,
      "lusion": 1853,
      "Ġfut": 1854,
      "hed": 1855,
      "Ġstrat": 1856,
      "Ġsem": 1857,
      "truc": 1858,
      "line": 1859,
      "ania": 1860,
      "Ġmass": 1861,
      "ume": 1862,
      "Ġbl": 1863,
      "sa": 1864,
      "entale": 1865,
      "Ġscon": 1866,
      "Ġothers": 1867,
      "ĠSer": 1868,
      "Ġfinale": 1869,
      "Ġenviron": 1870,
      "Ġanno": 1871,
      "bi": 1872,
      "ĠÃĪ": 1873,
      "ppe": 1874,
      "Ġcolla": 1875,
      "Ġ0": 1876,
      "Ġrim": 1877,
      "ĠNew": 1878,
      "Ġsocial": 1879,
      "ĊĠ": 1880,
      "Ġthough": 1881,
      "Ġproprio": 1882,
      "tare": 1883,
      "conom": 1884,
      "angu": 1885,
      "Ġbuild": 1886,
      "Ġsette": 1887,
      "Ġtutti": 1888,
      "197": 1889,
      ".\"": 1890,
      "alitÃł": 1891,
      "aging": 1892,
      "Ġem": 1893,
      "eria": 1894,
      "Ġprovid": 1895,
      "Ġnat": 1896,
      "day": 1897,
      "ardo": 1898,
      "Ġstra": 1899,
      "Ġstrateg": 1900,
      "Ġvo": 1901,
      "Ġru": 1902,
      "ivo": 1903,
      "ert": 1904,
      "Ġessential": 1905,
      "tto": 1906,
      "ances": 1907,
      "Ġsignificant": 1908,
      "oso": 1909,
      "Ġfar": 1910,
      "Ġamong": 1911,
      "Ġmateri": 1912,
      "ages": 1913,
      "Ġbeh": 1914,
      "Ar": 1915,
      "Ġ193": 1916,
      "Ġcaratter": 1917,
      "Ġprofess": 1918,
      "ple": 1919,
      "Ġdown": 1920,
      "Ġrese": 1921,
      "Ġaver": 1922,
      "Ġtrov": 1923,
      "orts": 1924,
      "ogni": 1925,
      "Ġcasa": 1926,
      "igi": 1927,
      "Ġseconda": 1928,
      "17": 1929,
      "ĠDi": 1930,
      "Ġcorrelate": 1931,
      "ills": 1932,
      "ĠItalia": 1933,
      "Ġalcuni": 1934,
      "Ġdoc": 1935,
      "agli": 1936,
      "ecting": 1937,
      "ĠTra": 1938,
      "ĠCl": 1939,
      "zing": 1940,
      "Ġbene": 1941,
      "Ġrelig": 1942,
      "aro": 1943,
      "Ġcontinu": 1944,
      "Ġcondi": 1945,
      "Ġling": 1946,
      "Ġlim": 1947,
      "Ġcharac": 1948,
      "omen": 1949,
      "Ġway": 1950,
      "ants": 1951,
      "10": 1952,
      "ĠII": 1953,
      "15": 1954,
      "ologia": 1955,
      "Ġanim": 1956,
      "Ġbat": 1957,
      "ĠAt": 1958,
      "ott": 1959,
      "Ġquanto": 1960,
      "Ġvic": 1961,
      "Ġdov": 1962,
      "ias": 1963,
      "osta": 1964,
      "tors": 1965,
      "Ġmemb": 1966,
      "Ġsenza": 1967,
      "Ġul": 1968,
      "ined": 1969,
      "hod": 1970,
      "Ġgioc": 1971,
      "esp": 1972,
      "ubb": 1973,
      "Ġracc": 1974,
      "Ġunder": 1975,
      "Ġfollow": 1976,
      "iness": 1977,
      "Ġbetter": 1978,
      "omb": 1979,
      "urces": 1980,
      "orm": 1981,
      "iore": 1982,
      "Ġhand": 1983,
      "entr": 1984,
      "ustri": 1985,
      "ova": 1986,
      "ute": 1987,
      "Now": 1988,
      "Ġproduc": 1989,
      "Ġinflu": 1990,
      "gono": 1991,
      "Ġrespons": 1992,
      "196": 1993,
      "ĠLo": 1994,
      "Ġconcep": 1995,
      "chio": 1996,
      "Ġpartecip": 1997,
      "Ġrich": 1998,
      "Ġdiscuss": 1999,
      "aster": 2000,
      "Ġutilizz": 2001,
      "Voci": 2002,
      "Ġterrit": 2003,
      "Ġfamiglia": 2004,
      "Ġinsieme": 2005,
      "Ġfocus": 2006,
      "Ġscrit": 2007,
      "Ġfl": 2008,
      "Ġcond": 2009,
      "ited": 2010,
      "Ġcomplet": 2011,
      "ogo": 2012,
      "Ġtechni": 2013,
      "Ġtele": 2014,
      "orical": 2015,
      "Ġemb": 2016,
      "ted": 2017,
      "oco": 2018,
      "Ġposto": 2019,
      "Ġreso": 2020,
      "iew": 2021,
      "Ġlas": 2022,
      "Ġchallenges": 2023,
      "arti": 2024,
      "ument": 2025,
      "Ġsud": 2026,
      "zzi": 2027,
      "ords": 2028,
      "Ġtowards": 2029,
      "Ã¡": 2030,
      "Ġcod": 2031,
      "Ġoffer": 2032,
      "Ġattra": 2033,
      "Ġcirca": 2034,
      "Ġacross": 2035,
      "âĢĵ": 2036,
      "Ġresearch": 2037,
      "Ġesemp": 2038,
      "Ġvari": 2039,
      "tiva": 2040,
      "ately": 2041,
      "ecn": 2042,
      "Ġperm": 2043,
      "Ġactiv": 2044,
      "ionato": 2045,
      "ĠTo": 2046,
      "Ġfasc": 2047,
      "urs": 2048,
      "Ġdalle": 2049,
      "Ġben": 2050,
      "ĠQues": 2051,
      "Ġnegli": 2052,
      "emente": 2053,
      "Ġmy": 2054,
      "Ġfer": 2055,
      "Ġsiste": 2056,
      "Ġgroup": 2057,
      "ution": 2058,
      "Ġpotential": 2059,
      "ggio": 2060,
      "Ġhuman": 2061,
      "Ġsens": 2062,
      "ovo": 2063,
      "Ġcollabor": 2064,
      "Ġmilit": 2065,
      "ĠVal": 2066,
      "Ġpractic": 2067,
      "inn": 2068,
      "ppi": 2069,
      "ĠGre": 2070,
      "ĠÂ": 2071,
      "pportun": 2072,
      "Ġhad": 2073,
      "Ġdic": 2074,
      "tead": 2075,
      "Ġiss": 2076,
      "Ġenco": 2077,
      "Biblio": 2078,
      "tiche": 2079,
      "16": 2080,
      "Section": 2081,
      "vilu": 2082,
      "ĠMilano": 2083,
      "Ġmean": 2084,
      "Ġedi": 2085,
      "Ġpicc": 2086,
      "```": 2087,
      "ĠLu": 2088,
      "Ġaltre": 2089,
      "otta": 2090,
      "Ġrelations": 2091,
      "Ġnav": 2092,
      "Ġaw": 2093,
      "Ġsue": 2094,
      "ĠThat": 2095,
      "Ġindividuals": 2096,
      "ĠUnd": 2097,
      "Ġlong": 2098,
      "arg": 2099,
      "incia": 2100,
      "ĠEd": 2101,
      "tur": 2102,
      "Ġrappresent": 2103,
      "Ġverso": 2104,
      "arie": 2105,
      "Ġtem": 2106,
      "Ġord": 2107,
      "ock": 2108,
      "Ġperiodo": 2109,
      "Ġappre": 2110,
      "Ġexperiences": 2111,
      "idente": 2112,
      "ĠPre": 2113,
      "Ġcont": 2114,
      "Ġfil": 2115,
      "Ġraggi": 2116,
      "ĠLet": 2117,
      "Ġwell": 2118,
      "ĠPi": 2119,
      "Bibliografia": 2120,
      "mbre": 2121,
      "Ġnuovo": 2122,
      "Tra": 2123,
      "adra": 2124,
      "Ġet": 2125,
      "soci": 2126,
      "Wh": 2127,
      "mat": 2128,
      "Ġshow": 2129,
      "It": 2130,
      "aring": 2131,
      "Ġogni": 2132,
      "iare": 2133,
      "Ġarriv": 2134,
      "Ġdedic": 2135,
      "ev": 2136,
      "ifica": 2137,
      "eder": 2138,
      "Ġeduc": 2139,
      "ections": 2140,
      "Ġinoltre": 2141,
      "ĠBo": 2142,
      "ugno": 2143,
      "aving": 2144,
      "attro": 2145,
      "Ġfound": 2146,
      "self": 2147,
      "ĠBut": 2148,
      "Ġperform": 2149,
      "Ġcontempor": 2150,
      "ency": 2151,
      "til": 2152,
      "Ġrole": 2153,
      "risti": 2154,
      "ativo": 2155,
      "ible": 2156,
      "Ġjour": 2157,
      "Ġfriends": 2158,
      "Ġfirst": 2159,
      "riera": 2160,
      "Ġotto": 2161,
      "Ġhapp": 2162,
      "Ġeconom": 2163,
      "ĠAm": 2164,
      "Ġbeing": 2165,
      "Ġstoria": 2166,
      "come": 2167,
      "):": 2168,
      "Ġcontrol": 2169,
      "hips": 2170,
      "Ġmaking": 2171,
      "Ġday": 2172,
      "âĢĶ": 2173,
      "iglior": 2174,
      "Ġthen": 2175,
      "ĠCons": 2176,
      "Ġrealizz": 2177,
      "12": 2178,
      "Ġfav": 2179,
      "Ġmulti": 2180,
      "Ġhistory": 2181,
      "Ġdivent": 2182,
      "ats": 2183,
      "rid": 2184,
      "Ġvide": 2185,
      "ering": 2186,
      "Ġsvilu": 2187,
      "agement": 2188,
      "Ġland": 2189,
      "ĠThrough": 2190,
      "Ġexploring": 2191,
      "iglio": 2192,
      "Ġguid": 2193,
      "fit": 2194,
      "esti": 2195,
      "Ġotten": 2196,
      "Ġbase": 2197,
      "ĠCan": 2198,
      "atta": 2199,
      "Ġmethod": 2200,
      "ital": 2201,
      "Ġpreced": 2202,
      "ĠHowever": 2203,
      "troduc": 2204,
      "ological": 2205,
      "ĠOn": 2206,
      "ĠSch": 2207,
      "ardi": 2208,
      "elo": 2209,
      "ĠTe": 2210,
      "14": 2211,
      "Ġdoes": 2212,
      "ause": 2213,
      "Ġopportun": 2214,
      "ĠMe": 2215,
      "Ġoltre": 2216,
      "ody": 2217,
      "usc": 2218,
      "Ġnar": 2219,
      "Ġagain": 2220,
      "onom": 2221,
      "val": 2222,
      "try": 2223,
      "Ġmis": 2224,
      "edes": 2225,
      "ames": 2226,
      "ĠgiÃł": 2227,
      "Ġstories": 2228,
      "Ġalong": 2229,
      "kes": 2230,
      "cco": 2231,
      "Ġstand": 2232,
      "Ġupon": 2233,
      "Ġexc": 2234,
      "Ġfatto": 2235,
      ":**": 2236,
      "ĠBar": 2237,
      "isi": 2238,
      "Ġdiscover": 2239,
      "Ch": 2240,
      "idd": 2241,
      "ah": 2242,
      "esta": 2243,
      "Ġsettembre": 2244,
      "Ġvin": 2245,
      "naio": 2246,
      "rebbe": 2247,
      "195": 2248,
      "Ġused": 2249,
      "tivitÃł": 2250,
      "ĠMaria": 2251,
      "Ġemo": 2252,
      "Ġget": 2253,
      "Ġcontribu": 2254,
      "ize": 2255,
      "Ġstart": 2256,
      "ĠSte": 2257,
      "Ġwhy": 2258,
      "ĠRob": 2259,
      "Ġanother": 2260,
      "ased": 2261,
      "âĢĿ": 2262,
      "uglio": 2263,
      "Ġsupport": 2264,
      "ists": 2265,
      "Ġself": 2266,
      "Ġtitolo": 2267,
      "Ġspesso": 2268,
      "Ġgovern": 2269,
      "Ġcur": 2270,
      "ĠEl": 2271,
      "Ġpresso": 2272,
      "Ġesempio": 2273,
      "Ġtoo": 2274,
      "ĠperÃ²": 2275,
      "Â»": 2276,
      "Ġthings": 2277,
      "Ġfunction": 2278,
      "ki": 2279,
      "ĠGiovan": 2280,
      "Ġder": 2281,
      "tle": 2282,
      "tavia": 2283,
      "Ġsupp": 2284,
      "Ġsquadra": 2285,
      "Ġbus": 2286,
      "Ġanti": 2287,
      "Ġbeg": 2288,
      "otti": 2289,
      "mma": 2290,
      "oca": 2291,
      "iting": 2292,
      "Ġvalu": 2293,
      "rale": 2294,
      "ĠJohn": 2295,
      "Ġacqu": 2296,
      "istra": 2297,
      "Ġgiugno": 2298,
      "times": 2299,
      "ool": 2300,
      "Ġmaggi": 2301,
      "cese": 2302,
      "Ġbecome": 2303,
      "Ġafter": 2304,
      "Ġwrit": 2305,
      "Ġend": 2306,
      "Ġgennaio": 2307,
      "Ġincluding": 2308,
      "Ġdesc": 2309,
      "Ġrema": 2310,
      "allo": 2311,
      "ria": 2312,
      "Ġtutto": 2313,
      "Ġtecn": 2314,
      "ĠWor": 2315,
      "Ġimportant": 2316,
      "ela": 2317,
      "ionale": 2318,
      "Ġciv": 2319,
      "Ġlavoro": 2320,
      "Ġlangu": 2321,
      "Ġprob": 2322,
      "Ġinvece": 2323,
      "ĠComp": 2324,
      "Ġaccess": 2325,
      "Ġmaintain": 2326,
      "ĠWith": 2327,
      "Ġeveryone": 2328,
      "Ġ192": 2329,
      "tics": 2330,
      "Ġenvironment": 2331,
      "Ġagli": 2332,
      "Ġsf": 2333,
      "Ġfrat": 2334,
      "ĠGra": 2335,
      "ix": 2336,
      "inating": 2337,
      "Ġmorte": 2338,
      "ĠOne": 2339,
      "Ġluglio": 2340,
      "Ġcausa": 2341,
      "Ġadvan": 2342,
      "Ġwant": 2343,
      "Ġright": 2344,
      "bal": 2345,
      "Ġdicembre": 2346,
      "'re": 2347,
      "ail": 2348,
      "Ġthroughout": 2349,
      "Ġappreci": 2350,
      "ativa": 2351,
      "ĠBl": 2352,
      "row": 2353,
      "Ġcostitu": 2354,
      "onia": 2355,
      "11": 2356,
      "Ġtelevis": 2357,
      "asso": 2358,
      "ways": 2359,
      "ĠÂ«": 2360,
      "erstanding": 2361,
      "Ġgrazie": 2362,
      "ivamente": 2363,
      "Ġbelie": 2364,
      "niti": 2365,
      "Ġstudi": 2366,
      "Ġtechniques": 2367,
      "Ġcru": 2368,
      "illa": 2369,
      "Ġmarzo": 2370,
      "ots": 2371,
      "Ġlui": 2372,
      "Ġdid": 2373,
      "Ġtedes": 2374,
      "Ġbased": 2375,
      ",\"": 2376,
      "ĊĠĠĠ": 2377,
      "Ġchiesa": 2378,
      "Ġsl": 2379,
      "ilitÃł": 2380,
      "tric": 2381,
      "istiche": 2382,
      "Ġdig": 2383,
      "**:": 2384,
      "ĠAll": 2385,
      "Ġless": 2386,
      "ĠâĢľ": 2387,
      "Ġsomeone": 2388,
      "ĠMich": 2389,
      "Ġfoster": 2390,
      "Ġ/": 2391,
      "Ġcontra": 2392,
      "Ġdest": 2393,
      "Ġquattro": 2394,
      "Ġdeb": 2395,
      "Ġbecause": 2396,
      "Ġcommunic": 2397,
      "ging": 2398,
      "dio": 2399,
      "Ġkeep": 2400,
      "Ġlu": 2401,
      "Ġskills": 2402,
      "elves": 2403,
      "ĠRep": 2404,
      "Ġfood": 2405,
      "iale": 2406,
      "Ġabitanti": 2407,
      "Ġsign": 2408,
      "Ġstudents": 2409,
      "acc": 2410,
      "Ġcle": 2411,
      "ired": 2412,
      "ĠSal": 2413,
      "ination": 2414,
      "###": 2415,
      "by": 2416,
      "asti": 2417,
      "Ġchiam": 2418,
      "Ġ2010": 2419,
      "Ġbuon": 2420,
      "ĠIS": 2421,
      "Ġfrancese": 2422,
      "ender": 2423,
      "iment": 2424,
      "ĠTor": 2425,
      "una": 2426,
      "Ġmake": 2427,
      "ear": 2428,
      "ka": 2429,
      "ĠWhen": 2430,
      "Ġinteg": 2431,
      "Ġann": 2432,
      "Ġtop": 2433,
      "Ġwater": 2434,
      "Ġsever": 2435,
      "Ġemer": 2436,
      "plic": 2437,
      "izz": 2438,
      "Ġgiorno": 2439,
      "Ġdiven": 2440,
      "orpor": 2441,
      "13": 2442,
      "Ġinformation": 2443,
      "unit": 2444,
      "ĠNa": 2445,
      "Ġtim": 2446,
      "Ġpat": 2447,
      "Ġnumer": 2448,
      "ido": 2449,
      "Ġtake": 2450,
      "work": 2451,
      "ĠSome": 2452,
      "lement": 2453,
      "Ġcommunities": 2454,
      "ĠStu": 2455,
      "Ġsmall": 2456,
      "Ġapr": 2457,
      "Ġnovembre": 2458,
      "ultimo": 2459,
      "Ġuffici": 2460,
      "ĠPh": 2461,
      "lam": 2462,
      "ugg": 2463,
      "Ġcompon": 2464,
      "Ġneg": 2465,
      "Ġcele": 2466,
      "Ġmer": 2467,
      "III": 2468,
      "ner": 2469,
      "urg": 2470,
      "Ġattravers": 2471,
      "Ġbar": 2472,
      "lass": 2473,
      "ull": 2474,
      "ĠCor": 2475,
      "ality": 2476,
      "Ġmem": 2477,
      "Ġissues": 2478,
      "Ġcultural": 2479,
      "Ġvaluable": 2480,
      "Ġ2008": 2481,
      "Ġmal": 2482,
      "Ġfem": 2483,
      "mar": 2484,
      "atures": 2485,
      "Step": 2486,
      "Ġperf": 2487,
      "Ġmondi": 2488,
      "Ġfuture": 2489,
      "Ġdeterm": 2490,
      "ĠGe": 2491,
      "Ġpens": 2492,
      "ĠPri": 2493,
      "ĠGiovanni": 2494,
      "chit": 2495,
      "Ġrepresent": 2496,
      "Ġbeen": 2497,
      "Ġgenerale": 2498,
      "ython": 2499,
      "Ġsystems": 2500,
      "rin": 2501,
      "Âª": 2502,
      "Ġunit": 2503,
      "chie": 2504,
      "bbra": 2505,
      "Ġorganiz": 2506,
      "Ġprofession": 2507,
      "Ġstruc": 2508,
      "Ġcentro": 2509,
      "Ġten": 2510,
      "Ġmani": 2511,
      "agna": 2512,
      "omm": 2513,
      "ostr": 2514,
      "Ġorigin": 2515,
      "Ġmade": 2516,
      ");": 2517,
      "Ġart": 2518,
      "ĠPl": 2519,
      "ĠSim": 2520,
      "Ġassoci": 2521,
      "Ġ2007": 2522,
      "Ġitaliana": 2523,
      "ĠĠĠĠĠĠĠĠ": 2524,
      "Ġstory": 2525,
      "itore": 2526,
      "zionali": 2527,
      "rice": 2528,
      "forma": 2529,
      "ĠCamp": 2530,
      "eta": 2531,
      "Ġways": 2532,
      "Italia": 2533,
      "Ġinsp": 2534,
      "Storia": 2535,
      "Ġprimi": 2536,
      "esa": 2537,
      "Ġonly": 2538,
      "ĠâĢł": 2539,
      "Ġhistorical": 2540,
      "ered": 2541,
      "alized": 2542,
      "anizz": 2543,
      "Ġ2011": 2544,
      "ican": 2545,
      "idi": 2546,
      "Ġ2009": 2547,
      "bbraio": 2548,
      "Ġopen": 2549,
      "ĠMed": 2550,
      "ĠNon": 2551,
      "Ġinnov": 2552,
      "Ġatta": 2553,
      "Ġpractices": 2554,
      "ĠInd": 2555,
      "dition": 2556,
      "ending": 2557,
      "ula": 2558,
      "Ġcho": 2559,
      "Ġtrova": 2560,
      "cis": 2561,
      "tagon": 2562,
      "Ġthink": 2563,
      "ba": 2564,
      "Ġappar": 2565,
      "fo": 2566,
      "osci": 2567,
      "ibile": 2568,
      "Ġquesti": 2569,
      "Ġstati": 2570,
      "Ġshap": 2571,
      "Ġimprov": 2572,
      "ĠperchÃ©": 2573,
      "Ġdeep": 2574,
      "Ġinclude": 2575,
      "ĠGen": 2576,
      "ley": 2577,
      "Ġfrequ": 2578,
      "Ġsistema": 2579,
      "ieg": 2580,
      "Ġ2006": 2581,
      "Ġauth": 2582,
      "Ġscienti": 2583,
      "lish": 2584,
      "Ġwithout": 2585,
      "Ġcrucial": 2586,
      "ĠBr": 2587,
      "ritto": 2588,
      "ression": 2589,
      "Ġseveral": 2590,
      "Ġresources": 2591,
      "rib": 2592,
      "Ġfebbraio": 2593,
      "fully": 2594,
      "itori": 2595,
      "onte": 2596,
      "Ġcaus": 2597,
      "reg": 2598,
      "Ġcaso": 2599,
      "Ġband": 2600,
      "BN": 2601,
      "erto": 2602,
      "Ġchang": 2603,
      "Ġchange": 2604,
      "tt": 2605,
      "ĠRec": 2606,
      "chia": 2607,
      "Car": 2608,
      "Ġultim": 2609,
      "Ġopp": 2610,
      "imenti": 2611,
      "Ġremember": 2612,
      "ash": 2613,
      "Ġge": 2614,
      "ĠHa": 2615,
      "fici": 2616,
      "Ġjourney": 2617,
      "br": 2618,
      "ĠDon": 2619,
      "Ġstab": 2620,
      "Ġest": 2621,
      "Ġmuch": 2622,
      "Ġottobre": 2623,
      "Ġcour": 2624,
      "read": 2625,
      "Ġfascinating": 2626,
      "50": 2627,
      "tad": 2628,
      "ĠStati": 2629,
      "ald": 2630,
      "Ġpur": 2631,
      "Ġmost": 2632,
      "Ġstatunit": 2633,
      "Ġstate": 2634,
      "Ġmodern": 2635,
      "col": 2636,
      "Ġapproach": 2637,
      "Ġ2012": 2638,
      "'ll": 2639,
      "Ġbra": 2640,
      "Ġ,": 2641,
      "oks": 2642,
      "ually": 2643,
      "uso": 2644,
      "Ġucc": 2645,
      "Ġbro": 2646,
      "Ġhelps": 2647,
      "Ġliter": 2648,
      "Ġinstance": 2649,
      "Ġdist": 2650,
      "ledge": 2651,
      "Ġrice": 2652,
      "Ġlook": 2653,
      "Ġdiv": 2654,
      "Ġcapit": 2655,
      "dic": 2656,
      "ength": 2657,
      "ives": 2658,
      "bs": 2659,
      "aces": 2660,
      "eli": 2661,
      "Ġbusiness": 2662,
      "Ġcorso": 2663,
      "oglie": 2664,
      "Ġstep": 2665,
      "iografia": 2666,
      "Ġspir": 2667,
      "Ġglo": 2668,
      "tivi": 2669,
      "ĠCap": 2670,
      "Ġatt": 2671,
      "Ġcreating": 2672,
      "ey": 2673,
      "Ġparticolare": 2674,
      "ĠUniti": 2675,
      "Ġspecial": 2676,
      "omes": 2677,
      "ream": 2678,
      "Ġenh": 2679,
      "Ġfamily": 2680,
      "ically": 2681,
      "Ġalcune": 2682,
      "Ġmedia": 2683,
      "wh": 2684,
      "ears": 2685,
      "Ġbal": 2686,
      "Ġinterpret": 2687,
      "esto": 2688,
      "ÃŃ": 2689,
      "Ġsus": 2690,
      "Ġden": 2691,
      "Ġagainst": 2692,
      "issione": 2693,
      "ografia": 2694,
      "ingly": 2695,
      "ĠApp": 2696,
      "Ġapplic": 2697,
      "Ġpaese": 2698,
      "Ġtoday": 2699,
      "Ġcampionato": 2700,
      "Ġfiglio": 2701,
      "unt": 2702,
      "Ġporta": 2703,
      "Ġenerg": 2704,
      "Ġpopol": 2705,
      "ĠJe": 2706,
      "Ġpap": 2707,
      "side": 2708,
      "ĠUnderstanding": 2709,
      "Ġletter": 2710,
      "Ġcommunity": 2711,
      "Ġtale": 2712,
      "Ġnazionale": 2713,
      "erazione": 2714,
      "ĠRo": 2715,
      "Ġaprile": 2716,
      "Ġred": 2717,
      "Ġpes": 2718,
      "son": 2719,
      "Ġraga": 2720,
      "ĠISBN": 2721,
      "rip": 2722,
      "Ġknown": 2723,
      "Ġmas": 2724,
      "Ġconv": 2725,
      "Ġnavig": 2726,
      "mio": 2727,
      "aling": 2728,
      "Ġnuova": 2729,
      "Ġsy": 2730,
      "uni": 2731,
      "Ġdiffic": 2732,
      "ray": 2733,
      "Ġgiov": 2734,
      "Ġensure": 2735,
      "orso": 2736,
      "Ġscen": 2737,
      "fy": 2738,
      "Ġaddress": 2739,
      "Ġalbum": 2740,
      "ĠPal": 2741,
      "Ġstrong": 2742,
      "Ġpatter": 2743,
      "Ġdev": 2744,
      "Ġagosto": 2745,
      "Ġmolti": 2746,
      "oti": 2747,
      "ike": 2748,
      "Ġgain": 2749,
      "Ġindividual": 2750,
      "Ġpress": 2751,
      "ony": 2752,
      "interno": 2753,
      "ilar": 2754,
      "jects": 2755,
      "Ġlungo": 2756,
      "ada": 2757,
      "ove": 2758,
      "Ġum": 2759,
      "Ġaggi": 2760,
      "au": 2761,
      "ject": 2762,
      "ratt": 2763,
      "Ġarti": 2764,
      "21": 2765,
      "Ã¼": 2766,
      "Ġcamb": 2767,
      "Ġprovincia": 2768,
      "ĠFer": 2769,
      "onti": 2770,
      "Ġ2005": 2771,
      "Ġtry": 2772,
      "Ġfare": 2773,
      "Ġentra": 2774,
      "adem": 2775,
      "Ġruolo": 2776,
      "eness": 2777,
      "lying": 2778,
      "ĠSec": 2779,
      "etro": 2780,
      "ery": 2781,
      "table": 2782,
      "Ġsac": 2783,
      "Ġmeans": 2784,
      "ury": 2785,
      "acy": 2786,
      "Ġallows": 2787,
      "ploy": 2788,
      "Ġparticular": 2789,
      "Ġ2013": 2790,
      "Ġoss": 2791,
      "Ġtot": 2792,
      "Ġmark": 2793,
      "ability": 2794,
      "Ġprovide": 2795,
      "ĠMad": 2796,
      "Ġobs": 2797,
      "Ġexperience": 2798,
      "sy": 2799,
      "Ġpadre": 2800,
      "ĠAng": 2801,
      "joy": 2802,
      "Ġcritical": 2803,
      "Ġtraditional": 2804,
      "Ġprincipale": 2805,
      "teri": 2806,
      "Ġnow": 2807,
      "ges": 2808,
      "Ġ2000": 2809,
      "Ġextra": 2810,
      "ivi": 2811,
      "Ġchapter": 2812,
      "Ġdevelopment": 2813,
      "Ġopportunities": 2814,
      "Ġtools": 2815,
      "Ġmaggior": 2816,
      "Ġterritorio": 2817,
      "To": 2818,
      "endere": 2819,
      "Â°": 2820,
      "Ġstrut": 2821,
      "Ã³": 2822,
      "inary": 2823,
      "Ġspe": 2824,
      "otte": 2825,
      "ĠFrances": 2826,
      "Ġavere": 2827,
      "eggi": 2828,
      "orti": 2829,
      "ĠDav": 2830,
      "Ġcontemporary": 2831,
      "Ġpunto": 2832,
      "tero": 2833,
      "Ġlocal": 2834,
      "Ġrefl": 2835,
      "vero": 2836,
      "Ġap": 2837,
      "Ġinfatti": 2838,
      "Ġfo": 2839,
      "Ġpolic": 2840,
      "Ġ30": 2841,
      "ork": 2842,
      "enda": 2843,
      "ĠCas": 2844,
      "Ġversione": 2845,
      "any": 2846,
      "Ġstudio": 2847,
      "Ġmind": 2848,
      "ĠCal": 2849,
      "Ġyourself": 2850,
      "tta": 2851,
      "Ġsull": 2852,
      "Ġwond": 2853,
      "Ġinterna": 2854,
      "ĠGerm": 2855,
      "Ġarg": 2856,
      "ier": 2857,
      "istica": 2858,
      "Ġseem": 2859,
      "Ġsystem": 2860,
      "Ġtechnology": 2861,
      "Ġmust": 2862,
      "erson": 2863,
      "Ġmaggiore": 2864,
      "ĠPol": 2865,
      "Ġinsights": 2866,
      "Ġregard": 2867,
      "Ġiniti": 2868,
      "Ġprotagon": 2869,
      "ared": 2870,
      "utes": 2871,
      "ha": 2872,
      "Ġkey": 2873,
      "eric": 2874,
      "Ġpromo": 2875,
      "Ġrispetto": 2876,
      "Ġlevel": 2877,
      "...": 2878,
      "urante": 2879,
      "Ġhome": 2880,
      "itive": 2881,
      "Imagine": 2882,
      "Ġindi": 2883,
      "Ġpersonal": 2884,
      "Ġincon": 2885,
      "Ġmess": 2886,
      "Ġpub": 2887,
      "Ġsare": 2888,
      "ostra": 2889,
      "Ġsvol": 2890,
      "Ġincorpor": 2891,
      "Ġstrategies": 2892,
      "Ġauto": 2893,
      "Ġnord": 2894,
      "Ġdivis": 2895,
      "oking": 2896,
      "Ġvinc": 2897,
      "ubblica": 2898,
      "Ġ2004": 2899,
      "Ġgrowth": 2900,
      "Ġrele": 2901,
      "edere": 2902,
      "Ġspecie": 2903,
      "trod": 2904,
      "aries": 2905,
      "Ġtermine": 2906,
      "Ġpubblicato": 2907,
      "unn": 2908,
      "Ġprog": 2909,
      "azioni": 2910,
      "Ġphys": 2911,
      "194": 2912,
      "Ġindic": 2913,
      "Ġmondiale": 2914,
      "troduction": 2915,
      "orr": 2916,
      "Ġencoura": 2917,
      "Ġsuccesso": 2918,
      "Ġviol": 2919,
      "Ġdive": 2920,
      "elling": 2921,
      "Ġrin": 2922,
      "St": 2923,
      "Biografia": 2924,
      "Ġsede": 2925,
      "ĠRem": 2926,
      "Ġconcern": 2927,
      "Ġevol": 2928,
      "Ġsound": 2929,
      "Ġcatt": 2930,
      "Ġcertain": 2931,
      "ump": 2932,
      "antas": 2933,
      "Ġste": 2934,
      "Ġtrasfer": 2935,
      "osizione": 2936,
      "ĠSanta": 2937,
      "Ġcharacter": 2938,
      "Ġricon": 2939,
      "Ġsov": 2940,
      "ota": 2941,
      "Ġcostru": 2942,
      "ĠXV": 2943,
      "Ġworks": 2944,
      "Ġprobabil": 2945,
      "Ġimpact": 2946,
      "Ġquanti": 2947,
      "ope": 2948,
      "Ġlanguage": 2949,
      "Ġov": 2950,
      "unto": 2951,
      "abile": 2952,
      "ectives": 2953,
      "Ġsurround": 2954,
      "ĠEs": 2955,
      "Ġinstead": 2956,
      "uca": 2957,
      "Film": 2958,
      "eci": 2959,
      "uno": 2960,
      "edia": 2961,
      "Ġpossono": 2962,
      "30": 2963,
      "Ġrid": 2964,
      "Ġlinea": 2965,
      "ones": 2966,
      "Ġstessa": 2967,
      "Ġfis": 2968,
      "onna": 2969,
      "ĠPo": 2970,
      "pend": 2971,
      "imm": 2972,
      "ĠIns": 2973,
      "Ġrisult": 2974,
      "Ġmai": 2975,
      "inato": 2976,
      "Ġtutte": 2977,
      "Ġ25": 2978,
      "este": 2979,
      "Ġpriv": 2980,
      "Ġbea": 2981,
      "ening": 2982,
      "Ġinterest": 2983,
      "iction": 2984,
      "Ġaltern": 2985,
      "Ġenjoy": 2986,
      "ilities": 2987,
      "ĠTr": 2988,
      "care": 2989,
      "Ġfron": 2990,
      "oms": 2991,
      "Ġturno": 2992,
      "oph": 2993,
      "Ġvolte": 2994,
      "eni": 2995,
      "cchi": 2996,
      "itar": 2997,
      "ouse": 2998,
      "Ġteach": 2999,
      "Ġchild": 3000,
      "Ġcost": 3001,
      "Ġrap": 3002,
      "Ġteam": 3003,
      "itato": 3004,
      "Ġepisodi": 3005,
      "ĠBer": 3006,
      "Ġlist": 3007,
      "ints": 3008,
      "ĠDopo": 3009,
      "ĠInter": 3010,
      "Ġrecogni": 3011,
      "ky": 3012,
      "Ġexper": 3013,
      "Ġvengono": 3014,
      "Ġturn": 3015,
      "Ġregione": 3016,
      "Ġonline": 3017,
      "ĠWorld": 3018,
      "tual": 3019,
      "rest": 3020,
      "Ġvel": 3021,
      "uter": 3022,
      "Ġpersp": 3023,
      "ĠAnton": 3024,
      "Ġmen": 3025,
      "iapp": 3026,
      "thing": 3027,
      "Ġdif": 3028,
      "rive": 3029,
      "Ġallo": 3030,
      "vole": 3031,
      "Ġquestions": 3032,
      "rica": 3033,
      "ĠsocietÃł": 3034,
      "Pro": 3035,
      "Ġur": 3036,
      "ards": 3037,
      "ĠWell": 3038,
      "Ġproduzione": 3039,
      "Ġlives": 3040,
      "Ġrifer": 3041,
      "eper": 3042,
      "Ġdial": 3043,
      "Ġoccup": 3044,
      "ĠWill": 3045,
      "arte": 3046,
      "Ġpotere": 3047,
      "Ġtrad": 3048,
      "Ġproper": 3049,
      "Ġsulle": 3050,
      "clusion": 3051,
      "illed": 3052,
      "Ġquasi": 3053,
      "Ġpia": 3054,
      "Ġlavor": 3055,
      "Ġgood": 3056,
      "ason": 3057,
      "ivis": 3058,
      "Ġculture": 3059,
      "One": 3060,
      "rag": 3061,
      "Ġlaw": 3062,
      "top": 3063,
      "Ġprefer": 3064,
      "ĠĊĊ": 3065,
      "Ġ$": 3066,
      "ĠChapter": 3067,
      "Ġsugg": 3068,
      "Ġdiversi": 3069,
      "ĠEng": 3070,
      "Ġbehavi": 3071,
      "Ġcommon": 3072,
      "ĠNap": 3073,
      "urale": 3074,
      "ators": 3075,
      "Ġaim": 3076,
      "Ġcompeti": 3077,
      "uth": 3078,
      "Ġdiretto": 3079,
      "Ġ*": 3080,
      "Ġelements": 3081,
      "Ġsometimes": 3082,
      "iversitÃł": 3083,
      "ĠCarlo": 3084,
      "Ġcanz": 3085,
      "ĠMore": 3086,
      "ĠMus": 3087,
      "lese": 3088,
      "Ġcuri": 3089,
      "Ġknowledge": 3090,
      "eter": 3091,
      "aking": 3092,
      "Ġpiano": 3093,
      "orge": 3094,
      "Ġpal": 3095,
      "Ġnature": 3096,
      "Ġaspects": 3097,
      "Ġpati": 3098,
      "ĠSoci": 3099,
      "Ġ24": 3100,
      "Ġconnections": 3101,
      "ik": 3102,
      "ches": 3103,
      "ĠAf": 3104,
      "Ġnello": 3105,
      "sequ": 3106,
      "ciato": 3107,
      "Ġ2001": 3108,
      "Ġcant": 3109,
      "nero": 3110,
      "bbero": 3111,
      "ires": 3112,
      "ĠAc": 3113,
      "af": 3114,
      "lare": 3115,
      "elcome": 3116,
      "ulations": 3117,
      "Ġreduc": 3118,
      "ĠComm": 3119,
      "Ġrelationships": 3120,
      "Ġfactors": 3121,
      "Ġpatterns": 3122,
      "Ġvaria": 3123,
      "izing": 3124,
      "ostante": 3125,
      "ĠMod": 3126,
      "lav": 3127,
      "ĠNo": 3128,
      "une": 3129,
      "Ġvalues": 3130,
      "Ġsimilar": 3131,
      "ĠAg": 3132,
      "bra": 3133,
      "itto": 3134,
      "Ġgiorn": 3135,
      "Ġharm": 3136,
      "Ġvir": 3137,
      "inazione": 3138,
      "Ġalways": 3139,
      "Ġprim": 3140,
      "ema": 3141,
      "ler": 3142,
      "Ġnomin": 3143,
      "vesti": 3144,
      "Ġdistin": 3145,
      "ĠYour": 3146,
      "ĠIf": 3147,
      "Ġtratta": 3148,
      "Ġattraverso": 3149,
      "ĠFrancia": 3150,
      "Ġbody": 3151,
      "Ġhim": 3152,
      "Ġelet": 3153,
      "ĠChar": 3154,
      "Ġcarriera": 3155,
      "Ġtas": 3156,
      "ultima": 3157,
      "azz": 3158,
      "icamente": 3159,
      "ules": 3160,
      "Ġintern": 3161,
      "Ġstar": 3162,
      "Ġlog": 3163,
      "amo": 3164,
      "Ġ2003": 3165,
      "ditionally": 3166,
      "ĠNor": 3167,
      "Ġvend": 3168,
      "Ġepisodio": 3169,
      "Ġgir": 3170,
      "Ġdagli": 3171,
      "Ġatten": 3172,
      "ĠBen": 3173,
      "ĠHar": 3174,
      "Ġlegg": 3175,
      "Ġevents": 3176,
      "bile": 3177,
      "Ġcam": 3178,
      "rani": 3179,
      "Ġspeci": 3180,
      "Ġtransform": 3181,
      "Ġriti": 3182,
      "ete": 3183,
      "Ã¶": 3184,
      "rattutto": 3185,
      "Ġcomes": 3186,
      "tuale": 3187,
      "ĠAmerican": 3188,
      "eto": 3189,
      "Ġyears": 3190,
      "sh": 3191,
      "uale": 3192,
      "Ġpractice": 3193,
      "Let": 3194,
      "into": 3195,
      "ecc": 3196,
      "ĠWhat": 3197,
      "ynam": 3198,
      "ysis": 3199,
      "ĠVer": 3200,
      "Ġdeeper": 3201,
      "neo": 3202,
      "Ġcommunication": 3203,
      "ulation": 3204,
      "atica": 3205,
      "igen": 3206,
      "retto": 3207,
      "hether": 3208,
      "Ġcourse": 3209,
      "ĠYork": 3210,
      "Ġmethods": 3211,
      "Ġbattag": 3212,
      "Ġfavor": 3213,
      "Ġworking": 3214,
      "Ġimagine": 3215,
      "time": 3216,
      "Ġcateg": 3217,
      "Ġmomento": 3218,
      "Ġfield": 3219,
      "Ġfurther": 3220,
      "Com": 3221,
      "atro": 3222,
      "Ġadap": 3223,
      "erci": 3224,
      "ustr": 3225,
      "fs": 3226,
      "Ġcop": 3227,
      "Ġ.": 3228,
      "Ġ+": 3229,
      "anze": 3230,
      "Ġcampo": 3231,
      "Ġplace": 3232,
      "Ġtest": 3233,
      "Ġdefini": 3234,
      "Ġprev": 3235,
      "78": 3236,
      "Ġsociety": 3237,
      "Ġopere": 3238,
      "rese": 3239,
      "ĠLib": 3240,
      "Ġpoco": 3241,
      "Ġtipo": 3242,
      "Ġgran": 3243,
      "orni": 3244,
      "Ġlat": 3245,
      "ished": 3246,
      "ciples": 3247,
      "Ġvesc": 3248,
      "rÃł": 3249,
      "tori": 3250,
      "aco": 3251,
      "Ġcav": 3252,
      "Ġeurope": 3253,
      "ids": 3254,
      "put": 3255,
      "acqu": 3256,
      "Ġrela": 3257,
      "ĠVi": 3258,
      "Ġfir": 3259,
      "Ġsopra": 3260,
      "entemente": 3261,
      "istro": 3262,
      "yond": 3263,
      "Ġenti": 3264,
      "ĠBro": 3265,
      "Ġconserv": 3266,
      "Ġ[": 3267,
      "Ġuntil": 3268,
      "ĠMat": 3269,
      "view": 3270,
      "ĠMo": 3271,
      "Ġec": 3272,
      "Ġ2014": 3273,
      "gen": 3274,
      "Or": 3275,
      "omini": 3276,
      "Ġsaf": 3277,
      "Ġenergy": 3278,
      "Ġoggi": 3279,
      "enzi": 3280,
      "Ġemploy": 3281,
      "ĠCre": 3282,
      "Ġbest": 3283,
      "Ġshould": 3284,
      "Ġcontribute": 3285,
      "Ġcontrib": 3286,
      "Ġexist": 3287,
      "Ġsog": 3288,
      "Ġdecid": 3289,
      "ĠFrancesco": 3290,
      "Ġproc": 3291,
      "arc": 3292,
      "Ġarm": 3293,
      "Ġmiglior": 3294,
      "alazzo": 3295,
      "ĠChiesa": 3296,
      "Ġliber": 3297,
      "ults": 3298,
      "aff": 3299,
      "Ġperc": 3300,
      "Ġnote": 3301,
      "Ġvoce": 3302,
      "Ġhaving": 3303,
      "Ġoverall": 3304,
      "Ġtent": 3305,
      "erie": 3306,
      "Ġcolle": 3307,
      "Ġcompr": 3308,
      "aw": 3309,
      "Ġnet": 3310,
      "Ġevid": 3311,
      "ĠEurope": 3312,
      "anzi": 3313,
      "tretto": 3314,
      "anda": 3315,
      "Ġlove": 3316,
      "Ġcust": 3317,
      "Ġschool": 3318,
      "Ġnarrat": 3319,
      "Ġinvolves": 3320,
      "Trama": 3321,
      "Ġpersone": 3322,
      "ĠDo": 3323,
      "iring": 3324,
      "Ġyoung": 3325,
      "Ġosp": 3326,
      "Ġmoder": 3327,
      "Ġstill": 3328,
      "Ġposizione": 3329,
      "iter": 3330,
      "itare": 3331,
      "Ġol": 3332,
      "Ġperd": 3333,
      "ĠGrand": 3334,
      "ersi": 3335,
      "Ġpain": 3336,
      "album": 3337,
      "Ġsoprattutto": 3338,
      "ĠImagine": 3339,
      "Ġanaly": 3340,
      "Ġcolor": 3341,
      "Ġ2002": 3342,
      "Ġtemper": 3343,
      "Ġintell": 3344,
      "ministr": 3345,
      "Ġsui": 3346,
      "Ġaltro": 3347,
      "Ġpresente": 3348,
      "ĠLeg": 3349,
      "Ġarchit": 3350,
      "Ġsel": 3351,
      "equ": 3352,
      "ciÃ²": 3353,
      "ibility": 3354,
      "Ġsess": 3355,
      "Ġmakes": 3356,
      "Ġspa": 3357,
      "Ġdisco": 3358,
      "ĠĠĠĠĠĠĠ": 3359,
      "Ġtrasm": 3360,
      "Ġassol": 3361,
      "ware": 3362,
      "anni": 3363,
      "ĠFin": 3364,
      "Per": 3365,
      "Ġprobabilmente": 3366,
      "Ġnatural": 3367,
      "Ġsostitu": 3368,
      "ĠWhile": 3369,
      "Ġplan": 3370,
      "ĠImp": 3371,
      "Ġtorn": 3372,
      "oting": 3373,
      "Ġsap": 3374,
      "Ġbian": 3375,
      "Ġconsist": 3376,
      "ĠStato": 3377,
      "ament": 3378,
      "Ġestab": 3379,
      "resso": 3380,
      "Ġconcept": 3381,
      "pe": 3382,
      "Ġcell": 3383,
      "Ġlivello": 3384,
      "useppe": 3385,
      "ĠTod": 3386,
      "Ġcase": 3387,
      "Ġsepar": 3388,
      "Dopo": 3389,
      "Ġpopular": 3390,
      "Ġshared": 3391,
      "aglia": 3392,
      "ĠPiet": 3393,
      "redi": 3394,
      "uropa": 3395,
      "inf": 3396,
      "Ġconvers": 3397,
      "Ġconqu": 3398,
      "Ġmeas": 3399,
      "Ġcolleg": 3400,
      "At": 3401,
      "usto": 3402,
      "Ġzona": 3403,
      "enne": 3404,
      "tamente": 3405,
      "Ġmaterials": 3406,
      "Ġmeaning": 3407,
      "Ġstatunitense": 3408,
      "193": 3409,
      "rato": 3410,
      "Ġclos": 3411,
      "Ġlar": 3412,
      "yc": 3413,
      "rea": 3414,
      "ĠFur": 3415,
      "eth": 3416,
      "Ġactivities": 3417,
      "Ġparticip": 3418,
      "Ġquestion": 3419,
      "Ġang": 3420,
      "Ġface": 3421,
      "tit": 3422,
      "Ġassociated": 3423,
      "ritann": 3424,
      "Ġtypes": 3425,
      "Ġconten": 3426,
      "ĠPe": 3427,
      "Ġambi": 3428,
      "Ġebbe": 3429,
      "Ġcosa": 3430,
      "Ġquest": 3431,
      "ago": 3432,
      "graph": 3433,
      "ĠMin": 3434,
      "Ġadvent": 3435,
      "umento": 3436,
      "ked": 3437,
      "Ġdimens": 3438,
      "ilia": 3439,
      "ĠItali": 3440,
      "Ġforte": 3441,
      "ropri": 3442,
      "Ġhard": 3443,
      "voc": 3444,
      "ĠAdditionally": 3445,
      "air": 3446,
      "icro": 3447,
      "essi": 3448,
      "Ġdu": 3449,
      "Ġfriend": 3450,
      "ged": 3451,
      "orre": 3452,
      "Ġpartire": 3453,
      "uli": 3454,
      "Ġdistribu": 3455,
      "Ġthin": 3456,
      "ĠFu": 3457,
      "ctions": 3458,
      "uire": 3459,
      "ĠIII": 3460,
      "Ġincreas": 3461,
      "Ġcontinue": 3462,
      "Ġsegn": 3463,
      "Ġdivenne": 3464,
      "Ġachie": 3465,
      "ologies": 3466,
      "ĠRepubblica": 3467,
      "Ġesc": 3468,
      "Ġ190": 3469,
      "ests": 3470,
      "ĠConte": 3471,
      "Ġmac": 3472,
      "ordo": 3473,
      "ban": 3474,
      "Ġeffici": 3475,
      "orb": 3476,
      "Ġterra": 3477,
      "Ġnasc": 3478,
      "lin": 3479,
      "uola": 3480,
      "Ġkind": 3481,
      "25": 3482,
      "fico": 3483,
      "ogli": 3484,
      "Ġfosse": 3485,
      "avano": 3486,
      "Ġcalc": 3487,
      "Ġbeyond": 3488,
      "Ġgiorni": 3489,
      "ĠOp": 3490,
      "Ġpunti": 3491,
      "ĠJust": 3492,
      "Ġquar": 3493,
      "Ġdot": 3494,
      "km": 3495,
      "Ġefforts": 3496,
      "Ġlingua": 3497,
      "Ġlight": 3498,
      "Ġgenere": 3499,
      "Ġdelve": 3500,
      "Ġecc": 3501,
      "ĠTut": 3502,
      "off": 3503,
      "Ġliving": 3504,
      "ĠDal": 3505,
      "Ġinglese": 3506,
      "88": 3507,
      "ĠTer": 3508,
      "ĠShe": 3509,
      "ĠUnit": 3510,
      "Ġir": 3511,
      "Ġprogetto": 3512,
      "Ġsconfit": 3513,
      "Ġgrandi": 3514,
      "Ġprinciples": 3515,
      "pping": 3516,
      "Ġgl": 3517,
      "Ġimportance": 3518,
      "Ġprepar": 3519,
      "Ġcast": 3520,
      "Ġamp": 3521,
      "arth": 3522,
      "Ġgrado": 3523,
      "Ġ1999": 3524,
      "ization": 3525,
      "--------------------------------": 3526,
      "onstr": 3527,
      "Ġpubbl": 3528,
      "Ex": 3529,
      "Ne": 3530,
      "Ġsetting": 3531,
      "opera": 3532,
      "ĠBu": 3533,
      "Ġbig": 3534,
      "Ġsustain": 3535,
      "Ġhold": 3536,
      "ĠSerie": 3537,
      "ĠOver": 3538,
      "has": 3539,
      "Ġstrength": 3540,
      "Ġcorpo": 3541,
      "Ġavven": 3542,
      "pero": 3543,
      "Ġcontext": 3544,
      "Ġminim": 3545,
      "Ġsarebbe": 3546,
      "Ġfollowing": 3547,
      "Ġunivers": 3548,
      "asione": 3549,
      "erva": 3550,
      "Ġmultiple": 3551,
      "ables": 3552,
      "ama": 3553,
      "Ġsingolo": 3554,
      "Ġretur": 3555,
      "Ġpopolazione": 3556,
      "Ġbi": 3557,
      "Ġgioco": 3558,
      "Ġcura": 3559,
      "Ġensuring": 3560,
      "Ġgoverno": 3561,
      "Ġ23": 3562,
      "ĠRos": 3563,
      "ccio": 3564,
      "torno": 3565,
      "Ġpresenza": 3566,
      "gor": 3567,
      "ĠDa": 3568,
      "ĠNazionale": 3569,
      "Ġnor": 3570,
      "Ġ22": 3571,
      "ichÃ©": 3572,
      "ĠWar": 3573,
      "Ġpropria": 3574,
      "inizio": 3575,
      "Ġricev": 3576,
      "Ġfantas": 3577,
      "Ġregarding": 3578,
      "On": 3579,
      "tazione": 3580,
      "ĠTre": 3581,
      "Ġbatter": 3582,
      "rist": 3583,
      "parti": 3584,
      "erÃł": 3585,
      "tiene": 3586,
      "Ġori": 3587,
      "Ġconditions": 3588,
      "ker": 3589,
      "Ġthree": 3590,
      "Ġscel": 3591,
      "Ġluogo": 3592,
      "getto": 3593,
      "',": 3594,
      "rizione": 3595,
      "Ġopera": 3596,
      "ites": 3597,
      "Ġpic": 3598,
      "ĠFl": 3599,
      "iro": 3600,
      "ows": 3601,
      "Ġoriginale": 3602,
      "berg": 3603,
      "Ġstudy": 3604,
      "Ġpublic": 3605,
      "ativi": 3606,
      "Ġearly": 3607,
      "ĠMor": 3608,
      "ush": 3609,
      "Ġquel": 3610,
      "Ġeth": 3611,
      "Ġtuttavia": 3612,
      "Ġavrebbe": 3613,
      "So": 3614,
      "ĠCour": 3615,
      "Sc": 3616,
      "Ġtimes": 3617,
      "yd": 3618,
      "Ġvittoria": 3619,
      "Ġleading": 3620,
      "ĠmetÃł": 3621,
      "Ġfostering": 3622,
      "Ġdav": 3623,
      "igenous": 3624,
      "IV": 3625,
      "SA": 3626,
      "ancing": 3627,
      "isola": 3628,
      "Ġgroups": 3629,
      "the": 3630,
      "Ġrivol": 3631,
      "Ġthought": 3632,
      "ĠEr": 3633,
      "ira": 3634,
      "Ġdraw": 3635,
      "Ġservizio": 3636,
      "Ġriv": 3637,
      "ercito": 3638,
      "aps": 3639,
      "Ġmiss": 3640,
      "Is": 3641,
      "For": 3642,
      "ĠGiuseppe": 3643,
      "altra": 3644,
      "sych": 3645,
      "Ġdemonstr": 3646,
      "Ġnext": 3647,
      "Ġregion": 3648,
      "60": 3649,
      "ppia": 3650,
      "mselves": 3651,
      "ĠMag": 3652,
      "Ġtreat": 3653,
      "Ġchitar": 3654,
      "Ġthemselves": 3655,
      "Ġpowerful": 3656,
      "Ġevent": 3657,
      "ĠMay": 3658,
      "gia": 3659,
      "Ġillus": 3660,
      "ude": 3661,
      "Ġrif": 3662,
      "Ġmerc": 3663,
      "ectively": 3664,
      "Ġbamb": 3665,
      "Ġinclus": 3666,
      "Ġqueste": 3667,
      "of": 3668,
      "Ġey": 3669,
      "Ġprote": 3670,
      "pro": 3671,
      "ĠMc": 3672,
      "Ġeducation": 3673,
      "ĠCoppa": 3674,
      "fits": 3675,
      "Ġsimple": 3676,
      "Ġmeno": 3677,
      "Ġpresenta": 3678,
      "Ġpit": 3679,
      "Ġsic": 3680,
      "22": 3681,
      "tivity": 3682,
      "oles": 3683,
      "Ġlay": 3684,
      "tti": 3685,
      "Ġcad": 3686,
      "Ġvalue": 3687,
      "Ġhere": 3688,
      "Ġengaging": 3689,
      "ĠEm": 3690,
      "Ġperiod": 3691,
      "Ġ2015": 3692,
      "accia": 3693,
      "estra": 3694,
      "umenti": 3695,
      "oney": 3696,
      "olar": 3697,
      "way": 3698,
      "ĠÃ": 3699,
      "Ġvennero": 3700,
      "uomo": 3701,
      "estiv": 3702,
      "Ġ11": 3703,
      "Ġdynam": 3704,
      "Ġpubblica": 3705,
      "Ġelec": 3706,
      "ef": 3707,
      "Ġcard": 3708,
      "Ġbuilding": 3709,
      "abb": 3710,
      "Ġexpress": 3711,
      "ĠCast": 3712,
      "Ġrigu": 3713,
      "Ġneeds": 3714,
      "ĠOl": 3715,
      "Ġmanagement": 3716,
      "Ġcra": 3717,
      "ĠPaolo": 3718,
      "Ġperformance": 3719,
      "Ġones": 3720,
      "Ġspos": 3721,
      "Ġmant": 3722,
      "ĠSam": 3723,
      "Ġinterac": 3724,
      "ĠGli": 3725,
      "Ġlater": 3726,
      "aci": 3727,
      "Ġoffers": 3728,
      "ĠMal": 3729,
      "Ġsett": 3730,
      "Ġspace": 3731,
      "Ġcontain": 3732,
      "Ġsharing": 3733,
      "etal": 3734,
      "ĠDis": 3735,
      "ĠattivitÃł": 3736,
      "Ġintrod": 3737,
      "Ġresist": 3738,
      "Ġvideo": 3739,
      "ĠBra": 3740,
      "ird": 3741,
      "ĠAmerica": 3742,
      "umi": 3743,
      "Ġpla": 3744,
      "Ġsituato": 3745,
      "ands": 3746,
      "Ġcharacters": 3747,
      "Ġidentity": 3748,
      "Ġbehind": 3749,
      "Ġdefin": 3750,
      "?\"": 3751,
      "Ġsoft": 3752,
      "Ġnorm": 3753,
      "ĠUnivers": 3754,
      "Ġpossibile": 3755,
      "Ġsty": 3756,
      "omi": 3757,
      "Ġtak": 3758,
      "Ġimplement": 3759,
      "ĠAlex": 3760,
      "Ġ21": 3761,
      "ension": 3762,
      "ĠChristi": 3763,
      "Ġsurrounding": 3764,
      "Ġoptim": 3765,
      "Ġwords": 3766,
      "tivamente": 3767,
      "ĠTur": 3768,
      "Ġclub": 3769,
      "Ġintegr": 3770,
      "Ġricer": 3771,
      "trice": 3772,
      "Ġareas": 3773,
      "Ġrespect": 3774,
      "Ġ189": 3775,
      "ccia": 3776,
      "Ġprogress": 3777,
      "atives": 3778,
      "ael": 3779,
      "ĠHist": 3780,
      "Ġphysical": 3781,
      "Ġenvironmental": 3782,
      "Ġgiovane": 3783,
      "Ġpresenti": 3784,
      "vail": 3785,
      "ĠToday": 3786,
      "ettore": 3787,
      "pond": 3788,
      "ografica": 3789,
      "Ġyet": 3790,
      "Ġnut": 3791,
      "Ġbattaglia": 3792,
      "Ġpor": 3793,
      "andosi": 3794,
      "ciata": 3795,
      "80": 3796,
      "ĠKe": 3797,
      "therm": 3798,
      "ĠCam": 3799,
      "Ġstrada": 3800,
      "Ġlearned": 3801,
      "udd": 3802,
      "Ġfacil": 3803,
      "Ġitaliani": 3804,
      "ĠLond": 3805,
      "ĠAb": 3806,
      "ĠPietro": 3807,
      "Ġ26": 3808,
      "Ġresid": 3809,
      "ĠFir": 3810,
      "iamo": 3811,
      "Ġbritann": 3812,
      "abit": 3813,
      "eting": 3814,
      "ĠâĢĶ": 3815,
      "unta": 3816,
      "uf": 3817,
      "Ġcittad": 3818,
      "Ġquelle": 3819,
      "Ġdeve": 3820,
      "ĠSm": 3821,
      "ĠPres": 3822,
      "enge": 3823,
      "ĠCat": 3824,
      "ader": 3825,
      "atic": 3826,
      "ĠVol": 3827,
      "Ġsvilupp": 3828,
      "ĠLuc": 3829,
      "thermore": 3830,
      "cient": 3831,
      "Ġwhether": 3832,
      "ĠAss": 3833,
      "Ġorganizz": 3834,
      "ja": 3835,
      "tista": 3836,
      "Ġnear": 3837,
      "Ġaway": 3838,
      "izia": 3839,
      "Ġdigital": 3840,
      "Ġacco": 3841,
      "der": 3842,
      "Ġmusica": 3843,
      "righ": 3844,
      "Ġdomin": 3845,
      "Ġplat": 3846,
      "ball": 3847,
      "ank": 3848,
      "Ġconclusion": 3849,
      "Ġallora": 3850,
      "imi": 3851,
      "Ġterzo": 3852,
      "utions": 3853,
      "ĠciÃ²": 3854,
      "Ġtorneo": 3855,
      "ograph": 3856,
      "Ġmadre": 3857,
      "Ġgiv": 3858,
      "ĠGran": 3859,
      "Ġchanges": 3860,
      "uo": 3861,
      "Ġ1998": 3862,
      "ps": 3863,
      "Ġtype": 3864,
      "usti": 3865,
      "Ġattention": 3866,
      "Ġfr": 3867,
      "ĠCent": 3868,
      "Ġresili": 3869,
      "Ġprat": 3870,
      "occ": 3871,
      "Ġ27": 3872,
      "ĠTit": 3873,
      "Ġnarratives": 3874,
      "Ġlandsc": 3875,
      "Qu": 3876,
      "Ġmilitare": 3877,
      "ground": 3878,
      "ĠPat": 3879,
      "umb": 3880,
      "Ġground": 3881,
      "Ġcinque": 3882,
      "ĠDavid": 3883,
      "Ġtex": 3884,
      "cipl": 3885,
      "Ġmatri": 3886,
      "isa": 3887,
      "andid": 3888,
      "ĠAcc": 3889,
      "Ġrelev": 3890,
      "Ġallowing": 3891,
      "ĠRemember": 3892,
      "works": 3893,
      "ĠStr": 3894,
      "Ġscop": 3895,
      "Ġpost": 3896,
      "athy": 3897,
      "ĠNella": 3898,
      "Ġstile": 3899,
      "Ġmetri": 3900,
      "Ġsat": 3901,
      "ized": 3902,
      "arlo": 3903,
      "Ġ28": 3904,
      "ĠAntonio": 3905,
      "ĠMass": 3906,
      "Ġconcepts": 3907,
      "xim": 3908,
      "Ġshaping": 3909,
      "ĊĠĠĠĠĠĠĠ": 3910,
      "Ġserve": 3911,
      "Ġpolitica": 3912,
      "area": 3913,
      "Ġcentrale": 3914,
      "Ġair": 3915,
      "epoca": 3916,
      "ĠGermania": 3917,
      "Ġaper": 3918,
      "arda": 3919,
      "ĠUna": 3920,
      "Ġpast": 3921,
      "Ġindustri": 3922,
      "Ġmanif": 3923,
      "24": 3924,
      "dis": 3925,
      "Ġperspectives": 3926,
      "Ġther": 3927,
      "rent": 3928,
      "tanto": 3929,
      "Ġprotagonista": 3930,
      "Ġmoglie": 3931,
      "Ġprincipali": 3932,
      "python": 3933,
      "amed": 3934,
      "Ġriusc": 3935,
      "Ġview": 3936,
      "tron": 3937,
      "Se": 3938,
      "osp": 3939,
      "Ġlan": 3940,
      "Ġscience": 3941,
      "reh": 3942,
      "ĠSuper": 3943,
      "Ġsan": 3944,
      "oration": 3945,
      "AT": 3946,
      "Ġprogramma": 3947,
      "ĠSta": 3948,
      "ĠBre": 3949,
      "anzo": 3950,
      "ĠVene": 3951,
      "23": 3952,
      "Ġlimit": 3953,
      "Ġprime": 3954,
      "ident": 3955,
      "Ġpil": 3956,
      "Es": 3957,
      "ule": 3958,
      "ĠRegno": 3959,
      "Ġdichi": 3960,
      "atico": 3961,
      "By": 3962,
      "Ġdistr": 3963,
      "ĠAfter": 3964,
      "ĠJo": 3965,
      "Ġcapac": 3966,
      "Ġeverything": 3967,
      "Ġsom": 3968,
      "Ġproblema": 3969,
      "ator": 3970,
      "Ġprodotto": 3971,
      "Ġeffet": 3972,
      "Ġstruttura": 3973,
      "ek": 3974,
      "ettura": 3975,
      "enzo": 3976,
      "Ġvec": 3977,
      "ake": 3978,
      "Ġtrasp": 3979,
      "Ġsecond": 3980,
      "ife": 3981,
      "Ġtram": 3982,
      "Ġappreciate": 3983,
      "Ġold": 3984,
      "Ġpen": 3985,
      "ĠNapoli": 3986,
      "Conclusion": 3987,
      "Ġsquadre": 3988,
      "ovi": 3989,
      "Ġsar": 3990,
      "ĠNu": 3991,
      "Ġfece": 3992,
      "Ġ100": 3993,
      "ching": 3994,
      "Ġcool": 3995,
      "Ġfel": 3996,
      "useo": 3997,
      "Ġclassific": 3998,
      "Ġdare": 3999,
      "resc": 4000,
      "Ġlevels": 4001,
      "Ġcostruzione": 4002,
      "Ġfilled": 4003,
      "ĠBat": 4004,
      "cca": 4005,
      "Ġtar": 4006,
      "Ġautom": 4007,
      "Sp": 4008,
      "Ġshape": 4009,
      "rico": 4010,
      "Ġmembers": 4011,
      "ometra": 4012,
      "Ġsudd": 4013,
      "Ġ2016": 4014,
      "Ġderiv": 4015,
      "'ve": 4016,
      "Ġ1997": 4017,
      "ĠrealtÃł": 4018,
      "uck": 4019,
      "Ġdocument": 4020,
      "Ġfund": 4021,
      "Ġconta": 4022,
      "Ġsei": 4023,
      "Ġthinking": 4024,
      "Ġmedic": 4025,
      "40": 4026,
      "Ġstrugg": 4027,
      "ring": 4028,
      "Ġinvest": 4029,
      "Have": 4030,
      "Ġblo": 4031,
      "ĠFirenze": 4032,
      "tici": 4033,
      "Ġcultures": 4034,
      "Ġx": 4035,
      "asse": 4036,
      "Ġmodel": 4037,
      "Ġpan": 4038,
      "istico": 4039,
      "lig": 4040,
      "Ġclassifica": 4041,
      "ĊĠĊ": 4042,
      "Ġgreat": 4043,
      "ĠFurthermore": 4044,
      "Ġconsegu": 4045,
      "Ġpros": 4046,
      "Ġproviding": 4047,
      "Si": 4048,
      "Dal": 4049,
      "Bob": 4050,
      "ems": 4051,
      "Ġemphas": 4052,
      "essand": 4053,
      "tato": 4054,
      "anning": 4055,
      "Ġlei": 4056,
      "ham": 4057,
      "Ġprocesses": 4058,
      "Ġpag": 4059,
      "inata": 4060,
      "Ġfiglia": 4061,
      "Ġsemb": 4062,
      "Be": 4063,
      "Ġstorico": 4064,
      "Ġsame": 4065,
      "ĠMy": 4066,
      "Ġspirit": 4067,
      "issimo": 4068,
      "ording": 4069,
      "izi": 4070,
      "Ġwomen": 4071,
      "Ġusc": 4072,
      "Ġmental": 4073,
      "ĠRich": 4074,
      "Ġnecessary": 4075,
      "Ġpersonaggio": 4076,
      "ĠBri": 4077,
      "zze": 4078,
      "iscono": 4079,
      "Ġraggiung": 4080,
      "Ġapparten": 4081,
      "Ad": 4082,
      "ĠNow": 4083,
      "Ġmach": 4084,
      "pped": 4085,
      "Ġconcerns": 4086,
      "oved": 4087,
      "ĠSant": 4088,
      "Ġcomputer": 4089,
      "usi": 4090,
      "Ġfall": 4091,
      "ĠTour": 4092,
      "ened": 4093,
      "az": 4094,
      "Ġmys": 4095,
      "Ġritorno": 4096,
      "Ġuomini": 4097,
      "Ġarea": 4098,
      "Ġcalcio": 4099,
      "alo": 4100,
      "Ġlibr": 4101,
      "ĠMoreover": 4102,
      "ĠFo": 4103,
      "ĠCro": 4104,
      "ases": 4105,
      "vestig": 4106,
      "Ġmix": 4107,
      "Ġvarie": 4108,
      "eca": 4109,
      "Ġ1996": 4110,
      "Ġson": 4111,
      "Ġconfron": 4112,
      "Ġsince": 4113,
      "Ġcaratterizz": 4114,
      "Ġspagn": 4115,
      "Ġassist": 4116,
      "pre": 4117,
      "egna": 4118,
      "Ġcapo": 4119,
      "Comp": 4120,
      "temp": 4121,
      "Ġforms": 4122,
      "Ġpromoting": 4123,
      "Ġbeauti": 4124,
      "Ġrest": 4125,
      "ĠQuesto": 4126,
      "Ġcore": 4127,
      "estival": 4128,
      "Ġmedi": 4129,
      "oma": 4130,
      "ĠLuigi": 4131,
      "dy": 4132,
      "Ġricord": 4133,
      "Ġenough": 4134,
      "Ġsviluppo": 4135,
      "Ġ29": 4136,
      "ĠHer": 4137,
      "Ġintric": 4138,
      "actly": 4139,
      "Ġstarted": 4140,
      "assi": 4141,
      "Ġbasso": 4142,
      "olari": 4143,
      "Ġquelli": 4144,
      "Ġincredi": 4145,
      "Ġresta": 4146,
      "Ġrivel": 4147,
      "Ġcomponents": 4148,
      "ffic": 4149,
      "Ġgar": 4150,
      "Ġchallenging": 4151,
      "iac": 4152,
      "urre": 4153,
      "Ġscoper": 4154,
      "Ġlingu": 4155,
      "Ġhealthcare": 4156,
      "Ġeas": 4157,
      "cesi": 4158,
      "Ġpare": 4159,
      "Ġcustom": 4160,
      "Ġfiume": 4161,
      "estro": 4162,
      "ĠPaul": 4163,
      "ulate": 4164,
      "70": 4165,
      "alization": 4166,
      "Ġliterature": 4167,
      "Ġbooks": 4168,
      "Ġsuccessivo": 4169,
      "veni": 4170,
      "Ġpositive": 4171,
      "ises": 4172,
      "Ġdato": 4173,
      "ppio": 4174,
      "Ġraff": 4175,
      "Ġclim": 4176,
      "Ġdonna": 4177,
      "ĠDel": 4178,
      "Ġanalysis": 4179,
      "ince": 4180,
      "ĠSci": 4181,
      "ionati": 4182,
      "Ġglobal": 4183,
      "Ġhighl": 4184,
      "Ġbehavior": 4185,
      "Ġtutta": 4186,
      "ĠGo": 4187,
      "Ġsto": 4188,
      "Ġcro": 4189,
      "Ġrights": 4190,
      "Ġentramb": 4191,
      "altro": 4192,
      "Ġmaintaining": 4193,
      "ĠFi": 4194,
      "Ġpresidente": 4195,
      "Ġfigli": 4196,
      "Äģ": 4197,
      "Ġstabil": 4198,
      "aint": 4199,
      "ĠCos": 4200,
      "Ġreaders": 4201,
      "erve": 4202,
      "Ġwa": 4203,
      "Ġtransp": 4204,
      "Ġconsum": 4205,
      "ĠTorino": 4206,
      "Ġcanzone": 4207,
      "unque": 4208,
      "Nella": 4209,
      "ĠBas": 4210,
      "Ġpubblico": 4211,
      "edizione": 4212,
      "Ġconosci": 4213,
      "ucle": 4214,
      "Ġtotale": 4215,
      "Ġandare": 4216,
      "ising": 4217,
      "Ġsuccessivamente": 4218,
      "Ġtrust": 4219,
      "Ġrequire": 4220,
      "Ġbenefits": 4221,
      "Ġbring": 4222,
      "Ġdecide": 4223,
      "Ġpp": 4224,
      "Ġavuto": 4225,
      "Ġ2017": 4226,
      "Ġros": 4227,
      "ĠGod": 4228,
      "Ġrather": 4229,
      "ĠParigi": 4230,
      "Ã¤": 4231,
      "Ġconstruc": 4232,
      "resh": 4233,
      "Ġjo": 4234,
      "Ġinterpre": 4235,
      "alli": 4236,
      "Ġtrac": 4237,
      "tito": 4238,
      "Ġsignificantly": 4239,
      "Ġcover": 4240,
      "Ġbrano": 4241,
      "fort": 4242,
      "Ġdip": 4243,
      "Ġentr": 4244,
      "Ġsil": 4245,
      "Ġsteps": 4246,
      "Ġdom": 4247,
      "Ġfavorite": 4248,
      "ondi": 4249,
      "Ġsmo": 4250,
      "ĠXX": 4251,
      "Ġsw": 4252,
      "Ġparticularly": 4253,
      "Amer": 4254,
      "Ġartic": 4255,
      "assa": 4256,
      "Ġmesi": 4257,
      "Ques": 4258,
      "Ġlive": 4259,
      "ger": 4260,
      "Ġtesta": 4261,
      "Ġistitu": 4262,
      "gin": 4263,
      "Ġama": 4264,
      "Ġedizione": 4265,
      "racing": 4266,
      "econdo": 4267,
      "ila": 4268,
      "Ġstructures": 4269,
      "Ġexamining": 4270,
      "erop": 4271,
      "ĠBel": 4272,
      "ighting": 4273,
      "iazione": 4274,
      "Ġfol": 4275,
      "outh": 4276,
      "Ġdecision": 4277,
      "Cal": 4278,
      "Ġ1995": 4279,
      "Ġanimals": 4280,
      "Ġproced": 4281,
      "Ġtravel": 4282,
      "anced": 4283,
      "Ġgoing": 4284,
      "eduto": 4285,
      "cer": 4286,
      "Ġequip": 4287,
      "Ġges": 4288,
      "Ġplatform": 4289,
      "Ġtedesco": 4290,
      "rich": 4291,
      "Ġfratello": 4292,
      "idio": 4293,
      "Ġavevano": 4294,
      "Ġufficiale": 4295,
      "Ġcli": 4296,
      "Ġfamil": 4297,
      "resa": 4298,
      "ĠSud": 4299,
      "Ġthemes": 4300,
      "Ġregular": 4301,
      "unter": 4302,
      "Ġraccol": 4303,
      "Ġdetail": 4304,
      "auto": 4305,
      "iny": 4306,
      "ĠVit": 4307,
      "Ġelim": 4308,
      "Ġveloc": 4309,
      "Ġveg": 4310,
      "unic": 4311,
      "Ġstazione": 4312,
      "Ġsubito": 4313,
      "voluzione": 4314,
      "Ġheart": 4315,
      "alu": 4316,
      "ilio": 4317,
      "urce": 4318,
      "Ġinfer": 4319,
      "Ġhumans": 4320,
      "Ġquick": 4321,
      "inare": 4322,
      "Ġsenti": 4323,
      "Ġartists": 4324,
      "Pal": 4325,
      "Ġmusicale": 4326,
      "ĠIm": 4327,
      "echan": 4328,
      "ilarly": 4329,
      "ĠMac": 4330,
      "Ġsettim": 4331,
      "uting": 4332,
      "ĠDes": 4333,
      "Ġrob": 4334,
      "Ġbio": 4335,
      "Ġchallenge": 4336,
      "Ġdistretto": 4337,
      "Ġpath": 4338,
      "Ġfeatures": 4339,
      "ĠRuss": 4340,
      "Ġcomunque": 4341,
      "cuno": 4342,
      "Ġavail": 4343,
      "Ġcode": 4344,
      "ĠFrom": 4345,
      "Ġpassato": 4346,
      "ĠJos": 4347,
      "Ġlibro": 4348,
      "arli": 4349,
      "Ġcompos": 4350,
      "Ġlessons": 4351,
      "Ġvescovo": 4352,
      "Ġill": 4353,
      "Ġmolte": 4354,
      "ressi": 4355,
      "Ġquad": 4356,
      "Ġcompreh": 4357,
      "ortometra": 4358,
      "()": 4359,
      "Ġ1994": 4360,
      "Ġisn": 4361,
      "Ġgender": 4362,
      "Ġnumerous": 4363,
      "Ġcerc": 4364,
      "ĠSil": 4365,
      "Ġimportante": 4366,
      ".)": 4367,
      "Ġleaders": 4368,
      "cies": 4369,
      "Ġ1990": 4370,
      "Gli": 4371,
      "28": 4372,
      "Ġorganizations": 4373,
      "Ġsimp": 4374,
      "Ġelem": 4375,
      "ossa": 4376,
      "nia": 4377,
      "Ġvedere": 4378,
      "Ġpolitical": 4379,
      "Ġprecedente": 4380,
      "Ġplays": 4381,
      "Ġconflic": 4382,
      "\")": 4383,
      "Class": 4384,
      "istrazione": 4385,
      "ĠAlber": 4386,
      "sto": 4387,
      "ĠCla": 4388,
      "odies": 4389,
      "Ġnamed": 4390,
      "ancial": 4391,
      "ustice": 4392,
      "ored": 4393,
      "Ġreligio": 4394,
      "27": 4395,
      "odi": 4396,
      "Ġâ": 4397,
      "Ġtraditions": 4398,
      "26": 4399,
      "Ġtaking": 4400,
      "Ġprovides": 4401,
      "ĠCourse": 4402,
      "Ġrad": 4403,
      "29": 4404,
      "monio": 4405,
      "Alice": 4406,
      "irono": 4407,
      "Ġgara": 4408,
      "Ġinside": 4409,
      "Ġameric": 4410,
      "Ġheard": 4411,
      "Ġreturn": 4412,
      "Ġexpla": 4413,
      "rane": 4414,
      "Ġincorporating": 4415,
      "rove": 4416,
      "ĠVic": 4417,
      "Ġ2018": 4418,
      "viv": 4419,
      "ĠNic": 4420,
      "Ġlittle": 4421,
      "ĠThere": 4422,
      "enatore": 4423,
      "Ġcu": 4424,
      "Ġrefers": 4425,
      "dine": 4426,
      "urity": 4427,
      "andon": 4428,
      "Ġwat": 4429,
      "Ġbecomes": 4430,
      "UniversitÃł": 4431,
      "back": 4432,
      "Ġmilioni": 4433,
      "Ġideas": 4434,
      "Ġbreak": 4435,
      "Ġbecame": 4436,
      "Ġresult": 4437,
      "Ġnominato": 4438,
      "urn": 4439,
      "oming": 4440,
      "ĠOnce": 4441,
      "Ġ1992": 4442,
      "Comuni": 4443,
      "Ġgame": 4444,
      "Ġpromote": 4445,
      "Ġti": 4446,
      "Ġcommerci": 4447,
      "enta": 4448,
      "ruppi": 4449,
      "Ġbook": 4450,
      "areness": 4451,
      "ĠUs": 4452,
      "Ġsymb": 4453,
      "Ġsure": 4454,
      "iso": 4455,
      "Di": 4456,
      "Ġseguente": 4457,
      "rant": 4458,
      "ĠSa": 4459,
      "Ġspecifically": 4460,
      "Ġfuori": 4461,
      "cosa": 4462,
      "Ġscuola": 4463,
      "Ġresilience": 4464,
      "ensive": 4465,
      "Ġfeelings": 4466,
      "owers": 4467,
      "ĠWal": 4468,
      "Ġtell": 4469,
      "ĠRobert": 4470,
      "Ġquarti": 4471,
      "Ġrece": 4472,
      "Ġengine": 4473,
      "enced": 4474,
      "terra": 4475,
      "Fin": 4476,
      "Ġchitarra": 4477,
      "ĠRed": 4478,
      "ciatore": 4479,
      "Ġengage": 4480,
      "menti": 4481,
      "denti": 4482,
      "Ġtrib": 4483,
      "Ġdaily": 4484,
      "urgo": 4485,
      "Ġcreativ": 4486,
      "ordin": 4487,
      "Ġbeautiful": 4488,
      "ibili": 4489,
      "rima": 4490,
      "isto": 4491,
      "mos": 4492,
      "uments": 4493,
      "Ġprevent": 4494,
      "Ġcompl": 4495,
      "Ġreach": 4496,
      "Ġrig": 4497,
      "ĠBal": 4498,
      "Ġsurf": 4499,
      "osing": 4500,
      "Ġdin": 4501,
      "Ġassoluta": 4502,
      "Ġ50": 4503,
      "Ġfiction": 4504,
      "Ġclasse": 4505,
      "ffer": 4506,
      "eces": 4507,
      "Ġidea": 4508,
      "Ġsequ": 4509,
      "Äį": 4510,
      "Ġsito": 4511,
      "Ġsosten": 4512,
      "ĠNord": 4513,
      "Ġpreserv": 4514,
      "ils": 4515,
      "Ġvill": 4516,
      "ami": 4517,
      "Ġeffectively": 4518,
      "tivating": 4519,
      "ĠPap": 4520,
      "onn": 4521,
      "ĠTran": 4522,
      "ae": 4523,
      "ĠJames": 4524,
      "Ġfase": 4525,
      "Ġrequires": 4526,
      "Ã¨s": 4527,
      "ĠMarco": 4528,
      "Ġalm": 4529,
      "zed": 4530,
      "Ġpossible": 4531,
      "des": 4532,
      "Ġillustr": 4533,
      "Ġconosc": 4534,
      "unge": 4535,
      "Ġimmedi": 4536,
      "Ġalign": 4537,
      "etra": 4538,
      "ĠMonte": 4539,
      "Ġinterven": 4540,
      "Ġ1993": 4541,
      "Ġchildren": 4542,
      "ague": 4543,
      "Ġricerca": 4544,
      "comp": 4545,
      "Ġorigine": 4546,
      "Ġapplications": 4547,
      "Ġservices": 4548,
      "aves": 4549,
      "acqua": 4550,
      "Ġgenerations": 4551,
      "ĠDio": 4552,
      "Ġremains": 4553,
      "Ġancient": 4554,
      "Ġcult": 4555,
      "|-": 4556,
      "Ġcolp": 4557,
      "Ġimportanti": 4558,
      "pol": 4559,
      "ĠNov": 4560,
      "Ġfarm": 4561,
      "ror": 4562,
      "ĠJac": 4563,
      "apes": 4564,
      "Ġprecis": 4565,
      "Ġonce": 4566,
      "Ġinternazionale": 4567,
      "Ġdecided": 4568,
      "Ġneeded": 4569,
      "ĠUl": 4570,
      "Åį": 4571,
      "ously": 4572,
      "Ġlegge": 4573,
      "Ġphoto": 4574,
      "osity": 4575,
      "ĠMont": 4576,
      "Ġformazione": 4577,
      "Ġfoto": 4578,
      "ĠIV": 4579,
      "rim": 4580,
      "ĠSara": 4581,
      "Ġtelevisiva": 4582,
      "iliar": 4583,
      "Ġtru": 4584,
      "Ġbound": 4585,
      "Ġpsych": 4586,
      "Ġbalance": 4587,
      "Ġcommit": 4588,
      "Ġfronte": 4589,
      "Ġdichiar": 4590,
      "know": 4591,
      "Ġfaced": 4592,
      "hood": 4593,
      "fac": 4594,
      "En": 4595,
      "Ġimag": 4596,
      "Ġradio": 4597,
      "olato": 4598,
      "'.": 4599,
      "ĠVenezia": 4600,
      "Ġ(\"": 4601,
      "Ġnem": 4602,
      "Ġquality": 4603,
      "Ġexerc": 4604,
      "urt": 4605,
      "ĠMichael": 4606,
      "ĠTech": 4607,
      "ĠChamp": 4608,
      "rano": 4609,
      "icl": 4610,
      "Ġwar": 4611,
      "Ġvista": 4612,
      "rono": 4613,
      "Ġtarget": 4614,
      "Ġlarg": 4615,
      "ensione": 4616,
      "Ġreti": 4617,
      "appy": 4618,
      "omas": 4619,
      "Ġsolutions": 4620,
      "Ġobserv": 4621,
      "Ġromanzo": 4622,
      "Ġreligious": 4623,
      "tory": 4624,
      "ensi": 4625,
      "Ġ186": 4626,
      "fying": 4627,
      "Ġamb": 4628,
      "ĠGar": 4629,
      "osso": 4630,
      "Ġnumber": 4631,
      "going": 4632,
      "Ġsignificance": 4633,
      "reto": 4634,
      "Ġdelic": 4635,
      "ĠIntern": 4636,
      "uns": 4637,
      "Ġva": 4638,
      "Ġtalk": 4639,
      "Ġaction": 4640,
      "Ġmasch": 4641,
      "Ġlavori": 4642,
      "ĠPython": 4643,
      "Ġinser": 4644,
      "Ġtramite": 4645,
      "bers": 4646,
      "Ġnumerosi": 4647,
      "Ġplaying": 4648,
      "esimo": 4649,
      "Ġ2019": 4650,
      "Ġdoing": 4651,
      "ditional": 4652,
      "comes": 4653,
      "ĠPremio": 4654,
      "ĠExpl": 4655,
      "ros": 4656,
      "Ġexactly": 4657,
      "ĠInf": 4658,
      "Soci": 4659,
      "epend": 4660,
      "Ġconst": 4661,
      "atrice": 4662,
      "dom": 4663,
      "Ġgather": 4664,
      "ĠAlessand": 4665,
      "Ge": 4666,
      "Ġcontrollo": 4667,
      "Ġsafety": 4668,
      "ĠGa": 4669,
      "Ġ1991": 4670,
      "Ġemotions": 4671,
      "rill": 4672,
      "Ġbreve": 4673,
      "ĠChristian": 4674,
      "espite": 4675,
      "Ġpredic": 4676,
      "iappon": 4677,
      "Ġage": 4678,
      "Ġviv": 4679,
      "Ġrules": 4680,
      "Ġmaster": 4681,
      "Ġve": 4682,
      "tries": 4683,
      "Cl": 4684,
      "Ġluce": 4685,
      "Ġingredi": 4686,
      "astro": 4687,
      "Ġvital": 4688,
      "ĠcomunitÃł": 4689,
      "right": 4690,
      "ides": 4691,
      "Ġsafe": 4692,
      "ville": 4693,
      "Ġapproaches": 4694,
      "Ġresponsible": 4695,
      "Ġfemmin": 4696,
      "Ġvisit": 4697,
      "Ġnob": 4698,
      "This": 4699,
      "Ġpermesso": 4700,
      "ended": 4701,
      "Ġdesp": 4702,
      "Ġgive": 4703,
      "ilos": 4704,
      "itch": 4705,
      "usione": 4706,
      "Ġpas": 4707,
      "Ġril": 4708,
      "Ġspor": 4709,
      "ager": 4710,
      "Ġries": 4711,
      "umin": 4712,
      "Ġcomuni": 4713,
      "ĠEach": 4714,
      "apy": 4715,
      "But": 4716,
      "Ġappropri": 4717,
      "Ġqualcosa": 4718,
      "ĠTuttavia": 4719,
      "Ġnoti": 4720,
      "Ac": 4721,
      "Ġbusinesses": 4722,
      "Ġpari": 4723,
      "Ġforze": 4724,
      "yl": 4725,
      "Ġtesto": 4726,
      "hold": 4727,
      "How": 4728,
      "Ġelev": 4729,
      "olit": 4730,
      "hib": 4731,
      "identale": 4732,
      "Ġrag": 4733,
      "igliore": 4734,
      "Ġsuccessful": 4735,
      "Ġparts": 4736,
      "Ġmodific": 4737,
      "==": 4738,
      "torio": 4739,
      "Ġwal": 4740,
      "Ġclear": 4741,
      "Ġfew": 4742,
      "Ġinvolved": 4743,
      "Ġsocietal": 4744,
      "aged": 4745,
      "Ġoutcomes": 4746,
      "Ġrapid": 4747,
      "teriore": 4748,
      "Ġthoughts": 4749,
      "Ġmare": 4750,
      "Ġsay": 4751,
      "fl": 4752,
      "emato": 4753,
      "ĠRes": 4754,
      "erma": 4755,
      "Ġaere": 4756,
      "uole": 4757,
      "ulla": 4758,
      "45": 4759,
      "Ġpolicy": 4760,
      "bility": 4761,
      "Ġbeliefs": 4762,
      "Ġmicro": 4763,
      "ode": 4764,
      "Ġdesigned": 4765,
      "Ġfunzione": 4766,
      "ressione": 4767,
      "ĠSic": 4768,
      "Ġnucle": 4769,
      "istrib": 4770,
      "alista": 4771,
      "odo": 4772,
      "atamente": 4773,
      "Ġcorre": 4774,
      "Ġemotional": 4775,
      "Ġappreciation": 4776,
      "Ġpolitico": 4777,
      "inci": 4778,
      "Ġinfluence": 4779,
      "like": 4780,
      "Ġbattu": 4781,
      "ĠFeder": 4782,
      "Ġmi": 4783,
      "Ġseeking": 4784,
      "Ġdecisions": 4785,
      "sts": 4786,
      "Ġpian": 4787,
      "Ġempathy": 4788,
      "Ġcame": 4789,
      "Ġstress": 4790,
      "Ġconfer": 4791,
      "Ġext": 4792,
      "ĠDec": 4793,
      "ught": 4794,
      "Ġparlare": 4795,
      "Ġalto": 4796,
      "Ġbegin": 4797,
      "ĠMr": 4798,
      "All": 4799,
      "Ġsources": 4800,
      "2006": 4801,
      "Ġsapere": 4802,
      "exp": 4803,
      "razione": 4804,
      "ĠDem": 4805,
      "ĠGall": 4806,
      "Ġmot": 4807,
      "Ġaudi": 4808,
      "roc": 4809,
      "ners": 4810,
      "ĠGeorge": 4811,
      "Ġproblems": 4812,
      "Ġban": 4813,
      "Ġinvestig": 4814,
      "ux": 4815,
      "ax": 4816,
      "itation": 4817,
      "unse": 4818,
      "Ġchiamato": 4819,
      "Ġ:": 4820,
      "Ġpiccolo": 4821,
      "Ġvib": 4822,
      "amm": 4823,
      "Lo": 4824,
      "Ġreve": 4825,
      "2007": 4826,
      "ried": 4827,
      "90": 4828,
      "ritti": 4829,
      "aut": 4830,
      "Ġreading": 4831,
      "ister": 4832,
      "Ġmanten": 4833,
      "ĠUnited": 4834,
      "Ġfigure": 4835,
      "Ġflo": 4836,
      "Ġlocale": 4837,
      "Ġ\\": 4838,
      "Ġmand": 4839,
      "Ġmembri": 4840,
      "Ġsuperiore": 4841,
      "Ġaspect": 4842,
      "Ġaddressing": 4843,
      "Ġexamine": 4844,
      "Ġgol": 4845,
      "olica": 4846,
      "2005": 4847,
      "Ġestablish": 4848,
      "Ġhead": 4849,
      "Ġprep": 4850,
      "ĠSpec": 4851,
      "icon": 4852,
      "Ġqui": 4853,
      "Ġchia": 4854,
      "Ġfair": 4855,
      "Ġveget": 4856,
      "Ġbegan": 4857,
      "Ġnota": 4858,
      "ission": 4859,
      "Ġnoto": 4860,
      "Ġvisual": 4861,
      "ĠProv": 4862,
      "Im": 4863,
      "Ġongoing": 4864,
      "Ġadvanc": 4865,
      "Ġsex": 4866,
      "Ġ188": 4867,
      "Ġgiappon": 4868,
      "peratore": 4869,
      "Ġrefer": 4870,
      "anese": 4871,
      "cious": 4872,
      "orgio": 4873,
      "rup": 4874,
      "Ġgene": 4875,
      "ĠMess": 4876,
      "based": 4877,
      "ĠTom": 4878,
      "Ġlarge": 4879,
      "ĠBon": 4880,
      "alle": 4881,
      "Ġvan": 4882,
      "ĠChe": 4883,
      "ĠCur": 4884,
      "Ġproblem": 4885,
      "ĠTheir": 4886,
      "Ġfat": 4887,
      "ardia": 4888,
      "entic": 4889,
      "ĠMario": 4890,
      "uali": 4891,
      "35": 4892,
      "tezza": 4893,
      "ĠFe": 4894,
      "Ġeffective": 4895,
      "anna": 4896,
      "uk": 4897,
      "uel": 4898,
      "Ġnutri": 4899,
      "istics": 4900,
      "lino": 4901,
      "Ġfacilit": 4902,
      "Ġpoint": 4903,
      "Ġcut": 4904,
      "Ġspazio": 4905,
      "Ġclean": 4906,
      "Ġvalore": 4907,
      "ched": 4908,
      "Ġinnovative": 4909,
      "Carriera": 4910,
      "And": 4911,
      "Ġsimb": 4912,
      "!\"": 4913,
      "ccess": 4914,
      "rating": 4915,
      "ĠBlack": 4916,
      "Ġcountry": 4917,
      "Ġsuperfic": 4918,
      "Ġdiparti": 4919,
      "ĠHappy": 4920,
      "ustria": 4921,
      "---": 4922,
      "Ġfirm": 4923,
      "ecu": 4924,
      "vere": 4925,
      "ĠEarth": 4926,
      "sw": 4927,
      "2008": 4928,
      "ĠpoichÃ©": 4929,
      "Ġora": 4930,
      "ĠWilliam": 4931,
      "ĠTri": 4932,
      "Ġgrad": 4933,
      "elines": 4934,
      "Ġours": 4935,
      "Ġrelationship": 4936,
      "ĠPrima": 4937,
      "Ġamministr": 4938,
      "Ġcivile": 4939,
      "Ġegli": 4940,
      "Ġferrov": 4941,
      "ĠSimilarly": 4942,
      "What": 4943,
      "onimo": 4944,
      "Ġhealthy": 4945,
      "Ġlunghe": 4946,
      "Am": 4947,
      "ĠGir": 4948,
      "esercito": 4949,
      "itable": 4950,
      "Ġprodut": 4951,
      "Ġperfect": 4952,
      "Ġcris": 4953,
      "isms": 4954,
      "lies": 4955,
      "Ġimprove": 4956,
      "atorio": 4957,
      "Ġqualche": 4958,
      "Ġcomand": 4959,
      "Ġincredible": 4960,
      "though": 4961,
      "Ġdialog": 4962,
      "Ġshort": 4963,
      "Ġidentify": 4964,
      "Ġfit": 4965,
      "Ġtanto": 4966,
      "Ġeffettu": 4967,
      "Ġtraining": 4968,
      "Ġore": 4969,
      "Ġmechan": 4970,
      "Ġmatter": 4971,
      "Ġcann": 4972,
      "2009": 4973,
      "ille": 4974,
      "Ġsense": 4975,
      "Ġcarb": 4976,
      "Ġdiritto": 4977,
      "lied": 4978,
      "Ġmut": 4979,
      "Ġfinancial": 4980,
      "Ġnavigate": 4981,
      "Ġriesce": 4982,
      "Ġresearchers": 4983,
      "bar": 4984,
      "Ġforn": 4985,
      "Op": 4986,
      "ĠproprietÃł": 4987,
      "orel": 4988,
      "Ġmedical": 4989,
      "ĠVis": 4990,
      "Ġsper": 4991,
      "uman": 4992,
      "ĠChi": 4993,
      "Ġcorris": 4994,
      "esia": 4995,
      "Ġdespite": 4996,
      "atory": 4997,
      "Ġcinemato": 4998,
      "Ġcritic": 4999,
      "tile": 5000,
      "Ġterza": 5001,
      "ĠWelcome": 5002,
      "Ġprocesso": 5003,
      "getti": 5004,
      "gorith": 5005,
      "ĠHave": 5006,
      "Ġcelebr": 5007,
      "ĠHol": 5008,
      "Ġevalu": 5009,
      "Ġfull": 5010,
      "Ġtopics": 5011,
      "ĠSol": 5012,
      "Ġprotect": 5013,
      "Ġroles": 5014,
      "abri": 5015,
      "Ġmill": 5016,
      "being": 5017,
      "Ġdecor": 5018,
      "isp": 5019,
      "ĠBob": 5020,
      "udio": 5021,
      "Ġaccomp": 5022,
      "asp": 5023,
      "Ġbroader": 5024,
      "Ass": 5025,
      "Ġamm": 5026,
      "ecially": 5027,
      "Ġattu": 5028,
      "entina": 5029,
      "fiche": 5030,
      "unning": 5031,
      "egno": 5032,
      "Ġadj": 5033,
      "ĠEuropa": 5034,
      "ĠGener": 5035,
      "Ġplants": 5036,
      "Ġdioc": 5037,
      "uff": 5038,
      "Ġfore": 5039,
      "enna": 5040,
      "Ġdati": 5041,
      "pris": 5042,
      "ÂłÂł": 5043,
      "ration": 5044,
      "Ġcountries": 5045,
      "Å¡": 5046,
      "gher": 5047,
      "risto": 5048,
      "Ġcapol": 5049,
      "Ġshif": 5050,
      "Ġbac": 5051,
      "Ġvery": 5052,
      "Ġcreative": 5053,
      "ĠMark": 5054,
      "Ġbackground": 5055,
      "ĠMer": 5056,
      "Ġmoney": 5057,
      "Ġultimi": 5058,
      "Ġmano": 5059,
      "volution": 5060,
      "Ġdisput": 5061,
      "Ġremain": 5062,
      "ĠArm": 5063,
      "itz": 5064,
      "ĠFam": 5065,
      "unica": 5066,
      "Ġfiloso": 5067,
      "ĠCard": 5068,
      "Ġtel": 5069,
      "Ġensures": 5070,
      "2010": 5071,
      "Ġentire": 5072,
      "ips": 5073,
      "amples": 5074,
      "SocietÃł": 5075,
      "fon": 5076,
      "lished": 5077,
      "Ġdiscipl": 5078,
      "onto": 5079,
      "99": 5080,
      "tac": 5081,
      "Ġ1989": 5082,
      "hemat": 5083,
      "Ġfamilies": 5084,
      "Ġos": 5085,
      "Ġincreased": 5086,
      "ĠDr": 5087,
      "vizz": 5088,
      "head": 5089,
      "Ġrecord": 5090,
      "ĠArt": 5091,
      "Ġsingle": 5092,
      "ĠDurante": 5093,
      "ĠGia": 5094,
      "Ã³n": 5095,
      "bili": 5096,
      "Ġcross": 5097,
      "Ġsempl": 5098,
      "Ġnp": 5099,
      "Ġ31": 5100,
      "Ġinstall": 5101,
      "Ġtakes": 5102,
      "Ġsalv": 5103,
      "Ġpay": 5104,
      "Ġrete": 5105,
      "Ġnazionali": 5106,
      "ĠTw": 5107,
      "Ġtechnologies": 5108,
      "Ġrelevant": 5109,
      "Ġdise": 5110,
      "Ġelse": 5111,
      "ĠPrin": 5112,
      "Ġpensare": 5113,
      "Ġcreativity": 5114,
      "Ġresults": 5115,
      "Ġcio": 5116,
      "Ġscritto": 5117,
      "teria": 5118,
      "aly": 5119,
      "Ġactions": 5120,
      "Ġespecially": 5121,
      "Ġful": 5122,
      "Ġflu": 5123,
      "Ġaccur": 5124,
      "Ġdallo": 5125,
      "Ġtour": 5126,
      "ennis": 5127,
      "ĠvelocitÃł": 5128,
      "Ġpred": 5129,
      "mine": 5130,
      "Ġpersonaggi": 5131,
      "ficio": 5132,
      "inal": 5133,
      "Ġveri": 5134,
      "eso": 5135,
      "ado": 5136,
      "Ġavailable": 5137,
      "Ġfoss": 5138,
      "mes": 5139,
      "ĠBern": 5140,
      "Ġ1980": 5141,
      "orse": 5142,
      "Ġconnection": 5143,
      "ĠMet": 5144,
      "Ġconven": 5145,
      "Ġstudying": 5146,
      "Ġmotore": 5147,
      "ĠLove": 5148,
      "Â».": 5149,
      "ĠThink": 5150,
      "ĠAlice": 5151,
      "ĠAir": 5152,
      "ĠKing": 5153,
      "Ġstamp": 5154,
      "Ġcreated": 5155,
      "wide": 5156,
      "Ġvoc": 5157,
      "Ġtrue": 5158,
      "Ġgrowing": 5159,
      "Ġstay": 5160,
      "Ġsembra": 5161,
      "onde": 5162,
      "Introduction": 5163,
      "ĠRa": 5164,
      "ĠJean": 5165,
      "Ġput": 5166,
      "2004": 5167,
      "Ġabbandon": 5168,
      "Ġourselves": 5169,
      "Ġcinematogra": 5170,
      "Ġincreasingly": 5171,
      "Ġforza": 5172,
      "Ġrichies": 5173,
      "Ġtestim": 5174,
      "inese": 5175,
      "Ġsalve": 5176,
      "Ġsolid": 5177,
      "2011": 5178,
      "Ġcuriosity": 5179,
      "ologico": 5180,
      "ĠLondra": 5181,
      "ied": 5182,
      "eph": 5183,
      "Ġalta": 5184,
      "zzato": 5185,
      "Ġdiversity": 5186,
      "Ġconclus": 5187,
      "Ġamazing": 5188,
      "ilosoph": 5189,
      "Ġpoints": 5190,
      "ĠQuesta": 5191,
      "ĠCity": 5192,
      "Ġalternative": 5193,
      "Ġwarm": 5194,
      "Ġgas": 5195,
      "Ġtrying": 5196,
      "mai": 5197,
      "Ġsoftware": 5198,
      "Ġfree": 5199,
      "48": 5200,
      "Ġvenire": 5201,
      "Ġpolicies": 5202,
      "ĠVir": 5203,
      "making": 5204,
      "onomia": 5205,
      "Ġcantante": 5206,
      "Ġtempi": 5207,
      "Ġmaybe": 5208,
      "Ġutilizzato": 5209,
      "Ġpartite": 5210,
      "ciatori": 5211,
      "Ġvero": 5212,
      "ĠĊĠĊĠĊĠĊ": 5213,
      "ops": 5214,
      "Ġdipartimento": 5215,
      "tione": 5216,
      "Ġcortometra": 5217,
      "Ġintricate": 5218,
      "import": 5219,
      "ws": 5220,
      "Ġdam": 5221,
      "Ġmodello": 5222,
      "Ġawareness": 5223,
      "ya": 5224,
      "Ġadvoc": 5225,
      "ĠMart": 5226,
      "Ġprograms": 5227,
      "ivano": 5228,
      "Ġlived": 5229,
      "NA": 5230,
      "Ġinfine": 5231,
      "life": 5232,
      "Ġcity": 5233,
      "urali": 5234,
      "Ġflav": 5235,
      "ĠLeague": 5236,
      "Ġcivil": 5237,
      "33": 5238,
      "aga": 5239,
      "ĠAngel": 5240,
      "Ġenvironments": 5241,
      "Ġimplic": 5242,
      "Ġdirect": 5243,
      "vento": 5244,
      "Ġevidence": 5245,
      "Ġcompared": 5246,
      "isl": 5247,
      "bit": 5248,
      "Ġqualcuno": 5249,
      "Ġmeet": 5250,
      "iddle": 5251,
      "Ġesist": 5252,
      "Ġ40": 5253,
      "gn": 5254,
      "Ġregistr": 5255,
      "Ġcorrispond": 5256,
      "Ġmob": 5257,
      "Ġretro": 5258,
      "75": 5259,
      "agnia": 5260,
      "rata": 5261,
      "ĠGer": 5262,
      "eds": 5263,
      "Ġagric": 5264,
      "Ġonto": 5265,
      "ford": 5266,
      "tata": 5267,
      "Ġcause": 5268,
      "Ġdemografica": 5269,
      "ĠMarc": 5270,
      "Ġpartita": 5271,
      "Ġoptions": 5272,
      "Ġ#": 5273,
      "mpt": 5274,
      "ocrat": 5275,
      "eccan": 5276,
      "Ġintellig": 5277,
      "America": 5278,
      "Ġvicino": 5279,
      "Ġframe": 5280,
      "Ġspieg": 5281,
      "Ġbatt": 5282,
      "Ġcultura": 5283,
      "Ġcollaboration": 5284,
      "idst": 5285,
      "Ġgruppi": 5286,
      "Ġcapp": 5287,
      "ermo": 5288,
      "ĠColl": 5289,
      "uper": 5290,
      "agini": 5291,
      "Ġheav": 5292,
      "Ġcontinued": 5293,
      "ĠCa": 5294,
      "Ġvon": 5295,
      "ĠFili": 5296,
      "Ġdoesn": 5297,
      "Ġtend": 5298,
      "Ġtown": 5299,
      "Ġom": 5300,
      "Ġitems": 5301,
      "Ġdice": 5302,
      "ĠMiglior": 5303,
      "ĠGiorgio": 5304,
      "Ġplatforms": 5305,
      "ĠunitÃł": 5306,
      "rut": 5307,
      "Ġinizia": 5308,
      "Ġcandid": 5309,
      "Ġnotte": 5310,
      "Ġdiss": 5311,
      "torie": 5312,
      "ĠOur": 5313,
      "ĠLor": 5314,
      "oltÃł": 5315,
      "ĠHen": 5316,
      "Ġcontroll": 5317,
      "giorno": 5318,
      "ĠUniversity": 5319,
      "duzione": 5320,
      "Ġcontemporane": 5321,
      "Ġgraph": 5322,
      "Ġvinto": 5323,
      "ficazione": 5324,
      "alla": 5325,
      "ggia": 5326,
      "Ġdavvero": 5327,
      "Ġinvolving": 5328,
      "ĠLou": 5329,
      "Ġsed": 5330,
      "Ġdeveloping": 5331,
      "Ġnuovi": 5332,
      "Ġled": 5333,
      "Ġcentury": 5334,
      "ulture": 5335,
      "cent": 5336,
      "Ġperfetto": 5337,
      "Ġcastello": 5338,
      "Ġannun": 5339,
      "Ġdetto": 5340,
      "itti": 5341,
      "rimin": 5342,
      "2003": 5343,
      "ĠCle": 5344,
      "bel": 5345,
      "ĠChampions": 5346,
      "ko": 5347,
      "enom": 5348,
      "idden": 5349,
      "Camp": 5350,
      "Ġgoals": 5351,
      "Ġcoin": 5352,
      "__": 5353,
      "ĠJu": 5354,
      "=\"": 5355,
      "urato": 5356,
      "Ġsituations": 5357,
      "kers": 5358,
      "Ġnovel": 5359,
      "uma": 5360,
      "ĠRad": 5361,
      "resents": 5362,
      "Ġcoper": 5363,
      "Ġability": 5364,
      "Ġdol": 5365,
      "ether": 5366,
      "Ġagg": 5367,
      "Ġadventure": 5368,
      "Ġrifi": 5369,
      "rio": 5370,
      "trut": 5371,
      "Ġcel": 5372,
      "oritÃł": 5373,
      "Ġ1988": 5374,
      "Ġrock": 5375,
      "Ġmedie": 5376,
      "Ġscena": 5377,
      "esearch": 5378,
      "Ġcred": 5379,
      "ĠlocalitÃł": 5380,
      "Ġhelping": 5381,
      "oid": 5382,
      "ficial": 5383,
      "inta": 5384,
      "Ġassegn": 5385,
      "Ġdiscovered": 5386,
      "vesc": 5387,
      "ĠRecords": 5388,
      "Ġleft": 5389,
      "Ġball": 5390,
      "Ġness": 5391,
      "ĠInstead": 5392,
      "Ġpochi": 5393,
      "ĠQuando": 5394,
      "Ġelettr": 5395,
      "Ġfile": 5396,
      "ĠDra": 5397,
      "Ġrisk": 5398,
      "marÃ¨s": 5399,
      "Ġfas": 5400,
      "Ġsost": 5401,
      "ciare": 5402,
      "Ġnonostante": 5403,
      "Ġvent": 5404,
      "uls": 5405,
      "Ġworry": 5406,
      "ĠConsider": 5407,
      "ĠFrank": 5408,
      "Ġalgorith": 5409,
      "Ġtempor": 5410,
      "Ġmusc": 5411,
      "ologna": 5412,
      "ĠNav": 5413,
      "Ġconver": 5414,
      "Ġstare": 5415,
      "39": 5416,
      "elm": 5417,
      "Ġdifferences": 5418,
      "ĠIntroduction": 5419,
      "Ġmassima": 5420,
      "attivitÃł": 5421,
      "Ġscar": 5422,
      "Evoluzione": 5423,
      "Ġpieces": 5424,
      "Ġrepresents": 5425,
      "Ġnever": 5426,
      "ciano": 5427,
      "Ġrisks": 5428,
      "uries": 5429,
      "Ġassieme": 5430,
      "Ġcr": 5431,
      "Ġjob": 5432,
      "Ġrecip": 5433,
      "Ġ978": 5434,
      "ĠSarah": 5435,
      "eroporto": 5436,
      "Ġgreater": 5437,
      "Ġwis": 5438,
      "very": 5439,
      "ĠFestival": 5440,
      "udo": 5441,
      "Ġassess": 5442,
      "Fran": 5443,
      "Ġdynamics": 5444,
      "ĠChall": 5445,
      "Ġgames": 5446,
      "Ġdiscussions": 5447,
      "ĠNational": 5448,
      "ĠMel": 5449,
      "ĠTerra": 5450,
      "Ġcla": 5451,
      "Ġsociale": 5452,
      "ĠRussia": 5453,
      "Ġjustice": 5454,
      "Ġstudies": 5455,
      "bbene": 5456,
      "Ġproveni": 5457,
      "ordi": 5458,
      "ambi": 5459,
      "ĠPr": 5460,
      "Ġpapa": 5461,
      "Ġoutside": 5462,
      "ĠsarÃł": 5463,
      "Ġtruppe": 5464,
      "ĠRichard": 5465,
      "ĠSav": 5466,
      "ĠSpagna": 5467,
      "ales": 5468,
      "Ġgiven": 5469,
      "Ġcortometraggio": 5470,
      "iver": 5471,
      "ĠNat": 5472,
      "Ġconduc": 5473,
      "key": 5474,
      "Ġdish": 5475,
      "Ġmezzo": 5476,
      "Ġvolere": 5477,
      "ee": 5478,
      "Ġdispon": 5479,
      "iao": 5480,
      "Ġnuovamente": 5481,
      "Ġloss": 5482,
      "Ġriferimento": 5483,
      "Ġencounter": 5484,
      "Ġps": 5485,
      "Ġpoter": 5486,
      "Ġimpieg": 5487,
      "ulta": 5488,
      "Ġho": 5489,
      "Ġsco": 5490,
      "ĠMusic": 5491,
      "assion": 5492,
      "Ġmostra": 5493,
      "Ġprofessionals": 5494,
      "itage": 5495,
      "Ġpersona": 5496,
      "Ġelementi": 5497,
      "Ġworldwide": 5498,
      "rog": 5499,
      "2012": 5500,
      "Ġcomprende": 5501,
      "Ġfelt": 5502,
      "inali": 5503,
      "Pre": 5504,
      "Ġsubst": 5505,
      "nie": 5506,
      "Ġaffron": 5507,
      "ĠLife": 5508,
      "Ġfug": 5509,
      "Ġsuperficie": 5510,
      "wood": 5511,
      "orie": 5512,
      "Ġpote": 5513,
      "Ġ1987": 5514,
      "lim": 5515,
      "PalmarÃ¨s": 5516,
      "CA": 5517,
      "Ġoccasione": 5518,
      "Ġcolors": 5519,
      "Ġcarefully": 5520,
      "ega": 5521,
      "Ġasked": 5522,
      "Ġmercato": 5523,
      "ries": 5524,
      "Ġsituata": 5525,
      "illi": 5526,
      "Ġlegal": 5527,
      "Ġengagement": 5528,
      "ĠJack": 5529,
      "itt": 5530,
      "Ġbond": 5531,
      "Ha": 5532,
      "Ġlato": 5533,
      "ĠWest": 5534,
      "Ġspiritual": 5535,
      "Ġsent": 5536,
      "Ġproblemi": 5537,
      "Ġnuove": 5538,
      "Ġtrasc": 5539,
      "Ġcolore": 5540,
      "2000": 5541,
      "ener": 5542,
      "Ġinformed": 5543,
      "Ġritrov": 5544,
      "Chapter": 5545,
      "fano": 5546,
      "Ġnumerose": 5547,
      "Desc": 5548,
      "Ġvig": 5549,
      "erre": 5550,
      "ficato": 5551,
      "Ġovvero": 5552,
      "Ġpiccola": 5553,
      "ĠFilm": 5554,
      "zzazione": 5555,
      "Ġcodice": 5556,
      "Ġvul": 5557,
      "Ġaffid": 5558,
      "Ġremind": 5559,
      "Ġquickly": 5560,
      "Ġdisord": 5561,
      "ĠInoltre": 5562,
      "Ã§": 5563,
      "Ġ2020": 5564,
      "pper": 5565,
      "ĠTitle": 5566,
      "Ġhope": 5567,
      "Ġinterpretato": 5568,
      "Ġsold": 5569,
      "osed": 5570,
      "Ġtasks": 5571,
      "Do": 5572,
      "Ġpurp": 5573,
      "uzioni": 5574,
      "Ġmembro": 5575,
      "Ġproduce": 5576,
      "Ġadop": 5577,
      "Acc": 5578,
      "Ġveramente": 5579,
      "lan": 5580,
      "viene": 5581,
      "Ġcompag": 5582,
      "Ġconfid": 5583,
      "burg": 5584,
      "ĠPeter": 5585,
      "taggio": 5586,
      "ĠMol": 5587,
      "Ġregno": 5588,
      "Ġexpect": 5589,
      "ĠDevelop": 5590,
      "Ġterritori": 5591,
      "Before": 5592,
      "ĠTime": 5593,
      "Ġinvolve": 5594,
      "ilt": 5595,
      "ĠMany": 5596,
      "cell": 5597,
      "ĠiniziÃ²": 5598,
      "atici": 5599,
      "Ġenhance": 5600,
      "Ġoffering": 5601,
      "Ġfan": 5602,
      "Ġmovimento": 5603,
      "ĠSw": 5604,
      "Ġrus": 5605,
      "ĠKar": 5606,
      "Ġseguenti": 5607,
      "Ġassolutamente": 5608,
      "Ġdiocesi": 5609,
      "ministrazione": 5610,
      "dizioni": 5611,
      "Ġstructure": 5612,
      "Ġdeg": 5613,
      "enziale": 5614,
      "Ġcompan": 5615,
      "oste": 5616,
      "Ġintit": 5617,
      "Ġsosp": 5618,
      "Ġthre": 5619,
      "Ġdifferenza": 5620,
      "azi": 5621,
      "Ġregista": 5622,
      "Ġmoment": 5623,
      "Ġaimed": 5624,
      "Ġdonne": 5625,
      "ariamente": 5626,
      "ilterra": 5627,
      "36": 5628,
      "Ġwonder": 5629,
      "ls": 5630,
      "itiz": 5631,
      "encing": 5632,
      "Ġmonit": 5633,
      "ellow": 5634,
      "Ġsmooth": 5635,
      "Gio": 5636,
      "Ġinstitu": 5637,
      "First": 5638,
      "ĠsÃ©": 5639,
      "Ġfisica": 5640,
      "abili": 5641,
      "tability": 5642,
      "Ġembracing": 5643,
      "Ġmyster": 5644,
      "Ġfavore": 5645,
      "Ġprojects": 5646,
      "Ġriport": 5647,
      "asto": 5648,
      "oghi": 5649,
      "uty": 5650,
      "Ġguide": 5651,
      "Ġsituazione": 5652,
      "2002": 5653,
      "Ġexploration": 5654,
      "ĠWho": 5655,
      "alizza": 5656,
      "gar": 5657,
      "ĊĠĠĠĠĠĠĠĠ": 5658,
      "alism": 5659,
      "Ġinput": 5660,
      "ĠAlla": 5661,
      "Ġ1986": 5662,
      "ĠPan": 5663,
      "Ġragazza": 5664,
      "vic": 5665,
      "anotte": 5666,
      "civesc": 5667,
      "rad": 5668,
      "Ġdiventa": 5669,
      "alto": 5670,
      "etr": 5671,
      "Ġlabor": 5672,
      "ĠConf": 5673,
      "Ġnatura": 5674,
      "Ġavoid": 5675,
      "Ġadapt": 5676,
      "Ġabs": 5677,
      "urage": 5678,
      "ologica": 5679,
      "Ġ88": 5680,
      "Ġenter": 5681,
      "tagna": 5682,
      "term": 5683,
      "Ġbodies": 5684,
      "ĠCanada": 5685,
      "Ġmodels": 5686,
      "Ġplanning": 5687,
      "ĠDisc": 5688,
      "06": 5689,
      "Non": 5690,
      "esson": 5691,
      "Ġside": 5692,
      "Re": 5693,
      "ĠCi": 5694,
      "Ġrapporto": 5695,
      "Ġfigura": 5696,
      "ĠGold": 5697,
      "Another": 5698,
      "Ġunders": 5699,
      "ĠGal": 5700,
      "38": 5701,
      "Ġgrav": 5702,
      "Ġmanc": 5703,
      "olarmente": 5704,
      "ĠHo": 5705,
      "aso": 5706,
      "Ġrange": 5707,
      "ĠStates": 5708,
      "Ġfunctions": 5709,
      "Ġcristi": 5710,
      "Ġingredients": 5711,
      "las": 5712,
      "ĠCav": 5713,
      "Ġexpand": 5714,
      "endosi": 5715,
      "Ġsinistra": 5716,
      "ison": 5717,
      "Ġmatch": 5718,
      "Ġsimply": 5719,
      "Ġsustainable": 5720,
      "Ġvede": 5721,
      "ools": 5722,
      "Ġsenso": 5723,
      "Ġ185": 5724,
      "ĠFa": 5725,
      "Ġdevices": 5726,
      "ĠcioÃ¨": 5727,
      "Ġpossess": 5728,
      "Ġfresh": 5729,
      "Ġ1985": 5730,
      "Ġalmeno": 5731,
      "Ġmese": 5732,
      "Ġsimile": 5733,
      "47": 5734,
      "Ġearli": 5735,
      "Ġfemminile": 5736,
      "osti": 5737,
      "Gu": 5738,
      "ĠGro": 5739,
      "Ġobjects": 5740,
      "Ġdimensioni": 5741,
      "amore": 5742,
      "ours": 5743,
      "Ġcapitale": 5744,
      "Ġmeg": 5745,
      "oman": 5746,
      "tein": 5747,
      "46": 5748,
      "Ġinforma": 5749,
      "ral": 5750,
      "Ġneigh": 5751,
      "acco": 5752,
      "ĠMax": 5753,
      "ghi": 5754,
      "Gi": 5755,
      "Ġdream": 5756,
      "Ġlunga": 5757,
      "Ġwind": 5758,
      "Ġfinding": 5759,
      "Ġvisto": 5760,
      "Ġpreval": 5761,
      "Ġprimary": 5762,
      "Ġdovere": 5763,
      "2001": 5764,
      "Ġstore": 5765,
      "Ġauthors": 5766,
      "Ġpiece": 5767,
      "Ġeconomic": 5768,
      "eless": 5769,
      "Ġcoinvol": 5770,
      "Ġcolon": 5771,
      "Ġpatri": 5772,
      "Ġwild": 5773,
      "Ġferm": 5774,
      "ĠpossibilitÃł": 5775,
      "Ġmerid": 5776,
      "Ġlandscape": 5777,
      "Ġattore": 5778,
      "ĠWil": 5779,
      "ĠAnche": 5780,
      "oggi": 5781,
      "ordine": 5782,
      "Ġattacc": 5783,
      "Ġtrasform": 5784,
      "Ġmovements": 5785,
      "Ġproto": 5786,
      "ĠCes": 5787,
      "Ġplant": 5788,
      "ĠcapacitÃł": 5789,
      "ĠDani": 5790,
      "cher": 5791,
      "Ġfrazione": 5792,
      "itici": 5793,
      "ither": 5794,
      "Ġaccoun": 5795,
      "ĠBologna": 5796,
      "Ġproducts": 5797,
      "Ġ1984": 5798,
      "ĠMadonna": 5799,
      "Ġdr": 5800,
      "Ġfab": 5801,
      "ilo": 5802,
      "uito": 5803,
      "entino": 5804,
      "Ġbreath": 5805,
      "Ġserves": 5806,
      "agg": 5807,
      "Ġcasi": 5808,
      "Ġreac": 5809,
      "Ġcontratto": 5810,
      "Ġdoll": 5811,
      "ressive": 5812,
      "49": 5813,
      "Ġtab": 5814,
      "Ġmovement": 5815,
      "unc": 5816,
      "Ġwanted": 5817,
      "ĠColle": 5818,
      "Ġspread": 5819,
      "riva": 5820,
      "Ġrisultato": 5821,
      "ĠGiul": 5822,
      "Ġcategoria": 5823,
      "ĠMi": 5824,
      "ĠGes": 5825,
      "anim": 5826,
      "Ġattribu": 5827,
      "icazione": 5828,
      "Ġprese": 5829,
      "ĠInc": 5830,
      "Ġmilitari": 5831,
      "Ġforward": 5832,
      "Ġscusa": 5833,
      "Ġprogram": 5834,
      "Ġsounds": 5835,
      "Ġterms": 5836,
      "Ġamidst": 5837,
      "Ġclimate": 5838,
      "Ġprodotti": 5839,
      "ĠResearch": 5840,
      "ĠStudi": 5841,
      "ĠTim": 5842,
      "Ġgiocatore": 5843,
      "Ġentrambi": 5844,
      "Ġmathemat": 5845,
      "olf": 5846,
      "Ġbron": 5847,
      "ho": 5848,
      "abilities": 5849,
      "Ġcompletamente": 5850,
      "ĠFirst": 5851,
      "Ġpalazzo": 5852,
      "Ġcomando": 5853,
      "ghilterra": 5854,
      "ĠOpen": 5855,
      "Ġtradizione": 5856,
      "Ġhands": 5857,
      "Ġmel": 5858,
      "Ġcareful": 5859,
      "Ġsconfitta": 5860,
      "Ġarran": 5861,
      "Ġlegisl": 5862,
      "Ġscene": 5863,
      "Ġrelazione": 5864,
      "ogether": 5865,
      "ĠXI": 5866,
      "iappone": 5867,
      "ichi": 5868,
      "Ġele": 5869,
      "ĠMos": 5870,
      "ĠCome": 5871,
      "ĠCarl": 5872,
      "Ind": 5873,
      "Ġcoloni": 5874,
      "Ġbis": 5875,
      "37": 5876,
      "Ris": 5877,
      "ulting": 5878,
      "Ġappear": 5879,
      "Ġloved": 5880,
      "Ġproject": 5881,
      "ĠUp": 5882,
      "ociazione": 5883,
      "ĠClub": 5884,
      "Ġboundaries": 5885,
      "Ġlaws": 5886,
      "2013": 5887,
      "othing": 5888,
      "Ġormai": 5889,
      "ĠDivis": 5890,
      "Ġappe": 5891,
      "ĠSk": 5892,
      "alog": 5893,
      "Ġstandard": 5894,
      "Ġguida": 5895,
      "Ġbrain": 5896,
      "Ġreality": 5897,
      "Ġforti": 5898,
      "Ġfed": 5899,
      "Ġspaces": 5900,
      "fied": 5901,
      "Ġrend": 5902,
      "isse": 5903,
      "ĠHis": 5904,
      "ecento": 5905,
      "Ġgovernment": 5906,
      "asing": 5907,
      "Ġsyn": 5908,
      "Ġ1970": 5909,
      "Ġhigher": 5910,
      "ĠLat": 5911,
      "ector": 5912,
      "Ġparl": 5913,
      "ĠGrande": 5914,
      "rici": 5915,
      "05": 5916,
      "ĠKeep": 5917,
      "Ġeyes": 5918,
      "Ġinher": 5919,
      "Ġcinema": 5920,
      "Ġpiazza": 5921,
      "Ġdirettore": 5922,
      "tually": 5923,
      "Through": 5924,
      "dal": 5925,
      "ĠPrac": 5926,
      "Ġalongside": 5927,
      "Ġisp": 5928,
      "empl": 5929,
      "VI": 5930,
      "Ġappropriate": 5931,
      "rimo": 5932,
      "ĠSaint": 5933,
      "Ġparam": 5934,
      "Ġcomposto": 5935,
      "Ġinnovation": 5936,
      "ĠPalazzo": 5937,
      "estre": 5938,
      "Ġdirezione": 5939,
      "ustry": 5940,
      "Ġenab": 5941,
      "Ġchiamata": 5942,
      "Ġscenario": 5943,
      "fa": 5944,
      "Ġfeeling": 5945,
      "ĠCin": 5946,
      "ĠEnrico": 5947,
      "Ġsor": 5948,
      "asera": 5949,
      "Ġuomo": 5950,
      "Ġesegu": 5951,
      "Ġinterests": 5952,
      "Ġpaper": 5953,
      "Ġdiagn": 5954,
      "Ġimage": 5955,
      "ĠIdenti": 5956,
      "Distrib": 5957,
      "rick": 5958,
      "Ġschi": 5959,
      "Ġansw": 5960,
      "Ġhon": 5961,
      "leep": 5962,
      "Ġpurs": 5963,
      "Ġindipend": 5964,
      "Ġtexts": 5965,
      "urezza": 5966,
      "Ġsettings": 5967,
      "Ġriconosc": 5968,
      "Ġappena": 5969,
      "Ġreduce": 5970,
      "Ġconsiderato": 5971,
      "cks": 5972,
      "Ġosserv": 5973,
      "Ġdat": 5974,
      "09": 5975,
      "Ġessa": 5976,
      "Ġscientists": 5977,
      "Ġcarica": 5978,
      "immy": 5979,
      "vio": 5980,
      "ĠFre": 5981,
      "IS": 5982,
      "Ġinstruc": 5983,
      "orig": 5984,
      "irsi": 5985,
      "Ġurban": 5986,
      "Ġlooking": 5987,
      "estern": 5988,
      "Ġ1982": 5989,
      "Ġlines": 5990,
      "Ġnumbers": 5991,
      "ww": 5992,
      "ĠEg": 5993,
      "ĠCong": 5994,
      "ĠPic": 5995,
      "ander": 5996,
      "anizzazione": 5997,
      "ĠCost": 5998,
      "Ġmanaging": 5999,
      "Ġexamples": 6000,
      "ĠPop": 6001,
      "Ġethical": 6002,
      "Ġpotenti": 6003,
      "Ã¡n": 6004,
      "Ġcompless": 6005,
      "ĠRoy": 6006,
      "Ġdidn": 6007,
      "Ġscopo": 6008,
      "Ġcresc": 6009,
      "Ġ1983": 6010,
      "Secondo": 6011,
      "bl": 6012,
      "Stat": 6013,
      "Ġ187": 6014,
      "Ġhabit": 6015,
      "Ġunexp": 6016,
      "Ġtool": 6017,
      "Ġexch": 6018,
      "ĠUr": 6019,
      "enni": 6020,
      "Ġtappa": 6021,
      "rebbero": 6022,
      "Ġambient": 6023,
      "Ġtrovano": 6024,
      "riving": 6025,
      "Ġscientific": 6026,
      "uttosto": 6027,
      "Ġclose": 6028,
      "Ġcooking": 6029,
      "Ġmeccan": 6030,
      "ĠIndi": 6031,
      "ĠSyste": 6032,
      "Ġconnect": 6033,
      "ĠMartin": 6034,
      "Ġindigenous": 6035,
      "telling": 6036,
      "Ġrib": 6037,
      "Ġlocali": 6038,
      "Ġmaterial": 6039,
      "Ġtransport": 6040,
      "Ġmotiv": 6041,
      "ĠExp": 6042,
      "Ġappare": 6043,
      "where": 6044,
      "Ġagre": 6045,
      "abor": 6046,
      "asta": 6047,
      "Ġlow": 6048,
      "Ġdestra": 6049,
      "iglie": 6050,
      "Ġbatteria": 6051,
      "Ġstret": 6052,
      "Ġcoppia": 6053,
      "ĠriuscÃ¬": 6054,
      "Ġphilosoph": 6055,
      "Ġimages": 6056,
      "Ġchoose": 6057,
      "Ġbor": 6058,
      "Ġrang": 6059,
      "Ġoriginal": 6060,
      "ittÃł": 6061,
      "Una": 6062,
      "alf": 6063,
      "inger": 6064,
      "Ġhidden": 6065,
      "Ġintorno": 6066,
      "Ġmove": 6067,
      "Ġwriting": 6068,
      "iano": 6069,
      "ĠAlessandro": 6070,
      "Ġintroduc": 6071,
      "ademia": 6072,
      "ĠEmp": 6073,
      "acque": 6074,
      "iamenti": 6075,
      "Ġtook": 6076,
      "usta": 6077,
      "Ġmigliore": 6078,
      "Nell": 6079,
      "Ġinizialmente": 6080,
      "Ġfid": 6081,
      "Ġcollective": 6082,
      "tish": 6083,
      "Ġcorte": 6084,
      "ĠEnco": 6085,
      "Ġinvi": 6086,
      "ĠCharles": 6087,
      "Ġadvanced": 6088,
      "Ġcircond": 6089,
      "Ġprego": 6090,
      "Ġprec": 6091,
      "Ġembark": 6092,
      "Mon": 6093,
      "Ġchoices": 6094,
      "ield": 6095,
      "Ġkids": 6096,
      "Ġconsequ": 6097,
      "Ġcens": 6098,
      "ĠFerr": 6099,
      "Ġviaggio": 6100,
      "ĠTrans": 6101,
      "ĠAug": 6102,
      "vey": 6103,
      "Ġdistinct": 6104,
      "Ġreducing": 6105,
      "tempo": 6106,
      "Ġottenere": 6107,
      "Ġrot": 6108,
      "Ġpermette": 6109,
      "Ġvast": 6110,
      "Ġcaratteristiche": 6111,
      "ĠItaliana": 6112,
      "Ġschol": 6113,
      "ĠPartito": 6114,
      "El": 6115,
      "Ġrimase": 6116,
      "Ġparall": 6117,
      "Ġteat": 6118,
      "Ġindepend": 6119,
      "Ġ()": 6120,
      "ĠBor": 6121,
      "ĠThomas": 6122,
      "Ġgiapponese": 6123,
      "ĠGiappone": 6124,
      "Ġdecise": 6125,
      "ĠLeon": 6126,
      "ogn": 6127,
      "When": 6128,
      "Ġstim": 6129,
      "ĠCir": 6130,
      "Ġearlier": 6131,
      "Ġesclus": 6132,
      "Ġfunzion": 6133,
      "ĠVinc": 6134,
      "Ġautori": 6135,
      "ĠAustr": 6136,
      "Ġdipl": 6137,
      "$$": 6138,
      "1999": 6139,
      "Ġcook": 6140,
      "Ġtreatment": 6141,
      "Ġpero": 6142,
      "osition": 6143,
      "Ġrisol": 6144,
      "uly": 6145,
      "cy": 6146,
      "Ġbenissimo": 6147,
      "ĠMuseo": 6148,
      "ĠCali": 6149,
      "Ġconquist": 6150,
      "Ġorient": 6151,
      "Ġprovided": 6152,
      "Ġmeaningful": 6153,
      "ederci": 6154,
      "Ġguidance": 6155,
      "Ġgare": 6156,
      "Ġporto": 6157,
      "ziale": 6158,
      "ĠPress": 6159,
      "tituto": 6160,
      "rare": 6161,
      "Ġeffects": 6162,
      "Ġfaith": 6163,
      "ĠSanti": 6164,
      "ĠConc": 6165,
      "jor": 6166,
      "enny": 6167,
      "Ġremo": 6168,
      "Ġproduction": 6169,
      "Ġtecnica": 6170,
      "Ġprofessional": 6171,
      "onse": 6172,
      "Trac": 6173,
      "Ġromana": 6174,
      "rone": 6175,
      "ĠAfrica": 6176,
      "Ġgh": 6177,
      "ridge": 6178,
      "Ġmu": 6179,
      "ĠPlay": 6180,
      "Ġpersonale": 6181,
      "Ġsale": 6182,
      "Ġcondizioni": 6183,
      "Ġrile": 6184,
      "encies": 6185,
      "Ġwid": 6186,
      "ĠMas": 6187,
      "Ġcitta": 6188,
      "Ġscelta": 6189,
      "ĠLong": 6190,
      "Ġessendo": 6191,
      "ĠVen": 6192,
      "Ġask": 6193,
      "Ġhowever": 6194,
      "men": 6195,
      "Ġanx": 6196,
      "olata": 6197,
      "Ġciao": 6198,
      "Ġunexpected": 6199,
      "App": 6200,
      "Ġitaliane": 6201,
      "ĠChalleng": 6202,
      "Ġliqu": 6203,
      "Ġ1979": 6204,
      "ĠDuring": 6205,
      "fig": 6206,
      "Ġfrancesi": 6207,
      "Ġclin": 6208,
      "Ġrealizzato": 6209,
      "eck": 6210,
      "Ġcomplic": 6211,
      "Ġmacch": 6212,
      "Ġnetwork": 6213,
      "Ġcitiz": 6214,
      "Ġpiuttosto": 6215,
      "Ġreally": 6216,
      "imit": 6217,
      "------------": 6218,
      "Ġsorel": 6219,
      "Ġmarket": 6220,
      "Ġsemplice": 6221,
      "Ġlanguages": 6222,
      "ĠCer": 6223,
      "ĠStar": 6224,
      "Ġsurface": 6225,
      "Ġrealm": 6226,
      "unti": 6227,
      "Ġscusi": 6228,
      "Ġusers": 6229,
      "Ġhappens": 6230,
      "ĠSac": 6231,
      "ĠAfric": 6232,
      "Ġcogni": 6233,
      "ĠNell": 6234,
      "ĠPad": 6235,
      "uted": 6236,
      "Ġfru": 6237,
      "Ġbuongiorno": 6238,
      "Ġknows": 6239,
      "Ġromano": 6240,
      "ĠqualitÃł": 6241,
      "Ġamo": 6242,
      "ĠDef": 6243,
      "Ġabilities": 6244,
      "Ġfundament": 6245,
      "Ġwellbeing": 6246,
      "ĠHigh": 6247,
      "reen": 6248,
      "ĠĊĠ": 6249,
      "Ġbuonanotte": 6250,
      "08": 6251,
      "Ġconquista": 6252,
      "Ġbuonasera": 6253,
      "Welcome": 6254,
      "Ġbattuto": 6255,
      "Ġved": 6256,
      "iration": 6257,
      "ĠNorth": 6258,
      "Ġsuggest": 6259,
      "Ġvolume": 6260,
      "rate": 6261,
      "Ġschools": 6262,
      "Ġdeceduto": 6263,
      "Ġarrivederci": 6264,
      "Ġteatro": 6265,
      "Ġprende": 6266,
      "Ġheritage": 6267,
      "Ġperche": 6268,
      "Durante": 6269,
      "ĠSl": 6270,
      "yle": 6271,
      "Ġ1981": 6272,
      "ĠInternational": 6273,
      "wa": 6274,
      "Ġrein": 6275,
      "antica": 6276,
      "Ġzone": 6277,
      "ĠSet": 6278,
      "Ġnave": 6279,
      "ĠTogether": 6280,
      "Ġtratto": 6281,
      "oche": 6282,
      "Ġusato": 6283,
      "ocio": 6284,
      "Ġmisura": 6285,
      "ĠStra": 6286,
      "inning": 6287,
      "Ġsports": 6288,
      "forte": 6289,
      "ĠBell": 6290,
      "Ġcomplesso": 6291,
      "Ġmatrimonio": 6292,
      "Ġvibrant": 6293,
      "Ġnaturale": 6294,
      "Ġtrends": 6295,
      "Ġpeace": 6296,
      "ĠPas": 6297,
      "Ġmachine": 6298,
      "Ġcount": 6299,
      "34": 6300,
      "Ġricostr": 6301,
      "Ġultimately": 6302,
      "ĠAp": 6303,
      "Ġmanage": 6304,
      "Ġexciting": 6305,
      "ucci": 6306,
      "Ġfeed": 6307,
      "Ġnetworks": 6308,
      "Ġformato": 6309,
      "Ġprincipalmente": 6310,
      "Ġinternational": 6311,
      "uts": 6312,
      "enato": 6313,
      "egg": 6314,
      "Ġpad": 6315,
      "usias": 6316,
      "Ġcup": 6317,
      "ssa": 6318,
      "Ġmos": 6319,
      "ĠAre": 6320,
      "ĠFil": 6321,
      "07": 6322,
      "Ġcontea": 6323,
      "dd": 6324,
      "Ġable": 6325,
      "Ġfum": 6326,
      "Ġfamous": 6327,
      "ĠmorÃ¬": 6328,
      "onc": 6329,
      "alizing": 6330,
      "Ġrimane": 6331,
      "Ġexpression": 6332,
      "Finally": 6333,
      "Ġlate": 6334,
      "Ġrisultati": 6335,
      "04": 6336,
      "risse": 6337,
      "32": 6338,
      "Ġdivisione": 6339,
      "Ġpassion": 6340,
      "Ġdovuto": 6341,
      "Ã±": 6342,
      "Ġoppure": 6343,
      "Ġcollaborazione": 6344,
      "Ġolimp": 6345,
      "Ġeffetti": 6346,
      "Ġreale": 6347,
      "irit": 6348,
      "ades": 6349,
      "Ġestre": 6350,
      "remo": 6351,
      "new": 6352,
      "Descrizione": 6353,
      "rati": 6354,
      "rÃ©": 6355,
      "Ġoccur": 6356,
      "useum": 6357,
      "Ġbianco": 6358,
      "Ġaren": 6359,
      "Ġalike": 6360,
      "Ġdrawing": 6361,
      "ĠRel": 6362,
      "ĠSecondo": 6363,
      "Ġplaces": 6364,
      "Ġinteress": 6365,
      "Ġ1978": 6366,
      "Ġprig": 6367,
      "Ġcosidd": 6368,
      "Ġunico": 6369,
      "Ġtail": 6370,
      "Ġsceneggi": 6371,
      "Geografia": 6372,
      "usci": 6373,
      "cept": 6374,
      "Ġpartito": 6375,
      "erd": 6376,
      "Statistiche": 6377,
      "itamente": 6378,
      "Ġconfl": 6379,
      "ĠReal": 6380,
      "Ġinferiore": 6381,
      "Ġfigures": 6382,
      "Ġenable": 6383,
      "Ġju": 6384,
      "Ġfour": 6385,
      "tioned": 6386,
      "Ġpressure": 6387,
      "ĠFranco": 6388,
      "Ġfuoco": 6389,
      "ĠPart": 6390,
      "Ġbur": 6391,
      "Ġmeasure": 6392,
      "haps": 6393,
      "ĠSel": 6394,
      "Ġimperi": 6395,
      "ĠRic": 6396,
      "ĠGiochi": 6397,
      "Ġmeasures": 6398,
      "55": 6399,
      "ultane": 6400,
      "ĠLit": 6401,
      "arning": 6402,
      "ĠAndrea": 6403,
      "ental": 6404,
      "sian": 6405,
      "ji": 6406,
      "Ġtypically": 6407,
      "ĠMov": 6408,
      "Ġmeglio": 6409,
      "Ġlunghezza": 6410,
      "ĠCho": 6411,
      "Ġpiani": 6412,
      "Ġmedio": 6413,
      "Ġprecedenti": 6414,
      "Ġrealized": 6415,
      "Ġword": 6416,
      "Ġarche": 6417,
      "iber": 6418,
      "Ġadvancements": 6419,
      "acci": 6420,
      "Ġenables": 6421,
      "1998": 6422,
      "Co": 6423,
      "utta": 6424,
      "board": 6425,
      "Ġcorr": 6426,
      "Ġdifesa": 6427,
      "Ġencourages": 6428,
      "Ġriun": 6429,
      "my": 6430,
      "Ġdoppio": 6431,
      "Ġchem": 6432,
      "Ġ1976": 6433,
      "Ġtemperature": 6434,
      "arla": 6435,
      "Ġexperiment": 6436,
      "Ġdenomin": 6437,
      "Ġdays": 6438,
      "ĠSign": 6439,
      "inti": 6440,
      "Ġatti": 6441,
      "ropolit": 6442,
      "Ġbasic": 6443,
      "ĠnonchÃ©": 6444,
      "Ġparents": 6445,
      "tazioni": 6446,
      "fication": 6447,
      "cezione": 6448,
      "ĠStoria": 6449,
      "rie": 6450,
      "Ġstrani": 6451,
      "Ġlasci": 6452,
      "Ġwasn": 6453,
      "ĠTar": 6454,
      "ĠDiv": 6455,
      "ĠTeatro": 6456,
      "Ġinten": 6457,
      "Ġraggiungere": 6458,
      "Ġwondered": 6459,
      "SS": 6460,
      "ĠBras": 6461,
      "ugli": 6462,
      "Ġgard": 6463,
      "Ġott": 6464,
      "Ġgreen": 6465,
      "itrice": 6466,
      "ĠGl": 6467,
      "Ġpell": 6468,
      "Ġdirettamente": 6469,
      "Ġrivista": 6470,
      "Ġdetails": 6471,
      "Ġinteresting": 6472,
      "igliori": 6473,
      "graphy": 6474,
      "istenza": 6475,
      "AR": 6476,
      "Ġauthor": 6477,
      "Ġsecurity": 6478,
      "ĠCentr": 6479,
      "Ġuses": 6480,
      "Ġconto": 6481,
      "orough": 6482,
      "Ġplac": 6483,
      "Ġspecies": 6484,
      "Reg": 6485,
      "Ġdistrib": 6486,
      "ester": 6487,
      "Ġactivity": 6488,
      "Ġhouse": 6489,
      "uble": 6490,
      "etry": 6491,
      "ĠNot": 6492,
      "Ġenabling": 6493,
      "Ġseen": 6494,
      "etture": 6495,
      "Ġconsequences": 6496,
      "Ġaument": 6497,
      "Ġrispet": 6498,
      "Ġdisting": 6499,
      "Ġtroppo": 6500,
      "ibilitÃł": 6501,
      "Ġsection": 6502,
      "Ġ1960": 6503,
      "Ġpremio": 6504,
      "Ġplot": 6505,
      "Ġeventi": 6506,
      "atte": 6507,
      "ĠIndigenous": 6508,
      "ĠBur": 6509,
      "Ġfal": 6510,
      "Ġdeeply": 6511,
      "idea": 6512,
      "Ġformale": 6513,
      "Ġpreserving": 6514,
      "attuale": 6515,
      "ĠÐ": 6516,
      "Ġautonom": 6517,
      "Ġspetta": 6518,
      "Ġtestimoni": 6519,
      "Ġamico": 6520,
      "arian": 6521,
      "Ġ1975": 6522,
      "Ġenhancing": 6523,
      "Ġslow": 6524,
      "ĠAnna": 6525,
      "ypes": 6526,
      "ĠUSA": 6527,
      "Ġmang": 6528,
      "Ġquarto": 6529,
      "Ġmolec": 6530,
      "ĠWas": 6531,
      "Ġitself": 6532,
      "Ġartistic": 6533,
      "zy": 6534,
      "Ġgam": 6535,
      "idae": 6536,
      "Fu": 6537,
      "Ġsuccessivi": 6538,
      "Ġdistanza": 6539,
      "inati": 6540,
      "31": 6541,
      "Ġindica": 6542,
      "ram": 6543,
      "Ġconversations": 6544,
      "Ġmanip": 6545,
      "Ġplayed": 6546,
      "Ġsoprav": 6547,
      "ny": 6548,
      "ams": 6549,
      "Ġdiretta": 6550,
      "Ġcomporta": 6551,
      "unico": 6552,
      "Ġname": 6553,
      "Ġdifficult": 6554,
      "Ġsexual": 6555,
      "Ġspeciale": 6556,
      "uogo": 6557,
      "arca": 6558,
      "Ġfrequent": 6559,
      "Ġexperienced": 6560,
      "Ġinj": 6561,
      "Ġpaesi": 6562,
      "voli": 6563,
      "Ġcaptivating": 6564,
      "Ġsho": 6565,
      "ĠAdd": 6566,
      "ĠFac": 6567,
      "aug": 6568,
      "Ġmarito": 6569,
      "Ġinsegn": 6570,
      "civescovo": 6571,
      "Ġsola": 6572,
      "Ġreflect": 6573,
      "ĠPers": 6574,
      "Ġ2021": 6575,
      "Ġapply": 6576,
      "Tracce": 6577,
      "Ġceleb": 6578,
      "perienza": 6579,
      "Ġindustry": 6580,
      "ĠSometimes": 6581,
      "Ġque": 6582,
      "Ġtav": 6583,
      "ĠGreat": 6584,
      "gan": 6585,
      "rire": 6586,
      "trigu": 6587,
      "imb": 6588,
      "ĠStre": 6589,
      "ived": 6590,
      "ĠVI": 6591,
      "ĠJap": 6592,
      "ĠSuccess": 6593,
      "Ġrisal": 6594,
      "arico": 6595,
      "ĠnÃ©": 6596,
      "Ġcic": 6597,
      "ĠNuova": 6598,
      "Par": 6599,
      "Ġpartners": 6600,
      "ĠCri": 6601,
      "Ġintens": 6602,
      "sequently": 6603,
      "Ġfeat": 6604,
      "itig": 6605,
      "range": 6606,
      "ĠetÃł": 6607,
      "ĠEuropean": 6608,
      "Ġscul": 6609,
      "ĠOli": 6610,
      "chestra": 6611,
      "ĠAnn": 6612,
      "Ġunf": 6613,
      "ĠVan": 6614,
      "nit": 6615,
      "2014": 6616,
      "Ġempower": 6617,
      "Ġgesti": 6618,
      "Ġtheory": 6619,
      "ĠConn": 6620,
      "Ġcurrent": 6621,
      "Ġunc": 6622,
      "Ġpresenze": 6623,
      "inario": 6624,
      "etizioni": 6625,
      "Ġroom": 6626,
      "ibliot": 6627,
      "1997": 6628,
      "44": 6629,
      "Ġafferm": 6630,
      "FA": 6631,
      "Ġraffig": 6632,
      "Ġesso": 6633,
      "ianco": 6634,
      "Ġsize": 6635,
      "Ġlibrary": 6636,
      "Ġsettore": 6637,
      "Ġparole": 6638,
      "Ġbambini": 6639,
      "1996": 6640,
      "Ġglob": 6641,
      "Ġforces": 6642,
      "Ġwisdom": 6643,
      "Ġoccidentale": 6644,
      "identi": 6645,
      "Ġeye": 6646,
      "Ġ1977": 6647,
      "85": 6648,
      "Ġdedicato": 6649,
      "Ġalter": 6650,
      "fornia": 6651,
      "Ġactive": 6652,
      "Ġemerging": 6653,
      "Ġcurious": 6654,
      "Ġcouldn": 6655,
      "ĠFrancis": 6656,
      "Ġwritten": 6657,
      "Ġgoal": 6658,
      "emon": 6659,
      "Ġpace": 6660,
      "Ġcompany": 6661,
      "Ġshowc": 6662,
      "Ġprincipe": 6663,
      "Ġbeauty": 6664,
      "inate": 6665,
      "ĠSouth": 6666,
      "Ġdialogue": 6667,
      "cra": 6668,
      "65": 6669,
      "Ġdimostr": 6670,
      "Ġliterary": 6671,
      "Inter": 6672,
      "Ġplanet": 6673,
      "volta": 6674,
      "Ġheat": 6675,
      "Ġbecoming": 6676,
      "Ġpresto": 6677,
      "rore": 6678,
      "Ġanch": 6679,
      "Ġraccolta": 6680,
      "Ġpopulations": 6681,
      "Ġstudent": 6682,
      "reso": 6683,
      "ĠCiv": 6684,
      "Ġinters": 6685,
      "Ġsuccessiva": 6686,
      "Europa": 6687,
      "ĠLos": 6688,
      "Ġripr": 6689,
      "Ġnascita": 6690,
      "Ġsun": 6691,
      "tively": 6692,
      "Ġimmers": 6693,
      "Ġtedesca": 6694,
      "ĠForm": 6695,
      "lor": 6696,
      "Ġfuturo": 6697,
      "ĠAward": 6698,
      "Ġottenne": 6699,
      "Ġ1974": 6700,
      "estate": 6701,
      "ĠSqu": 6702,
      "Ġali": 6703,
      "Ġfocused": 6704,
      "aper": 6705,
      "Ġknowing": 6706,
      "Ġsocio": 6707,
      "ĠFri": 6708,
      "onica": 6709,
      "Ġstyle": 6710,
      "Classifica": 6711,
      "95": 6712,
      "Ġbomb": 6713,
      "Ġtrack": 6714,
      "Ġtouch": 6715,
      "Ġsaid": 6716,
      "Ġtransi": 6717,
      "Ġfeature": 6718,
      "Ġportato": 6719,
      "Ġcreatures": 6720,
      "Ġrisc": 6721,
      "ogio": 6722,
      "illo": 6723,
      "ĠRod": 6724,
      "Ġresto": 6725,
      "unitÃł": 6726,
      "Ġrepresentation": 6727,
      "Ġplas": 6728,
      "Ġresulting": 6729,
      "Ġchanging": 6730,
      "Ġadditional": 6731,
      "We": 6732,
      "Ġrates": 6733,
      "ĠOs": 6734,
      "Ġforme": 6735,
      "Ġsiano": 6736,
      "oses": 6737,
      "Ġexisting": 6738,
      "Ġmaschile": 6739,
      "Ġusually": 6740,
      "ĠSicilia": 6741,
      "Ġorientale": 6742,
      "Ġrecent": 6743,
      "Ġmateriale": 6744,
      "Ġ60": 6745,
      "Ġimplications": 6746,
      "Ġlif": 6747,
      "icato": 6748,
      "Ġfields": 6749,
      "Ġmostr": 6750,
      "Ġintra": 6751,
      "Ġbelieve": 6752,
      "Ġsuperi": 6753,
      "Ġsopp": 6754,
      "Ġcrimin": 6755,
      "Ġispir": 6756,
      "Ġmagical": 6757,
      "ĠGenova": 6758,
      "Lesson": 6759,
      "Ġtiny": 6760,
      "Ġimproved": 6761,
      "vest": 6762,
      "Ġcells": 6763,
      "Ġdramm": 6764,
      "Ġminore": 6765,
      "')": 6766,
      "Ġgetting": 6767,
      "Ġwebs": 6768,
      "Ġcalciatore": 6769,
      "Ġprova": 6770,
      "ĠRock": 6771,
      "Ġrappresenta": 6772,
      "overy": 6773,
      "Ġactually": 6774,
      "Ġrosso": 6775,
      "americ": 6776,
      "Ġhours": 6777,
      "Ġoptimal": 6778,
      "inando": 6779,
      "ĠServ": 6780,
      "Ġoccas": 6781,
      "edific": 6782,
      "Ġfores": 6783,
      "Ġeasy": 6784,
      "Ġcerto": 6785,
      "Ġpatients": 6786,
      "Ġgained": 6787,
      "Ġdiscussing": 6788,
      "Ġperic": 6789,
      "ĠRi": 6790,
      "Ġmeridionale": 6791,
      "Ġforse": 6792,
      "ads": 6793,
      "bles": 6794,
      "Ġcloser": 6795,
      "alls": 6796,
      "Ġbelong": 6797,
      "reno": 6798,
      "Ġguidelines": 6799,
      "Ġadding": 6800,
      "Ġ45": 6801,
      "Ġresol": 6802,
      "def": 6803,
      "Ġstatunitensi": 6804,
      "Ġcapable": 6805,
      "ĠOf": 6806,
      "Ġ1972": 6807,
      "Ġartisti": 6808,
      "ĠEven": 6809,
      "Ġprove": 6810,
      "Ġseries": 6811,
      "onore": 6812,
      "Ġcampagna": 6813,
      "Ġfrattempo": 6814,
      "nal": 6815,
      "Ġimpac": 6816,
      "Ġ1973": 6817,
      "Ġlies": 6818,
      "ĠPeople": 6819,
      "Ġpotrebbe": 6820,
      "Ġgiovani": 6821,
      "Ġmale": 6822,
      "Ġmemoria": 6823,
      "Ġsche": 6824,
      "Ġtruly": 6825,
      "Ġinteractions": 6826,
      "ancy": 6827,
      "ĠBol": 6828,
      "Ġgiud": 6829,
      "Ġventi": 6830,
      "archit": 6831,
      "ĠCD": 6832,
      "Ġsuff": 6833,
      "Ġuso": 6834,
      "Ġmanifesta": 6835,
      "Â»,": 6836,
      "Ġdoppi": 6837,
      "Ġponte": 6838,
      "Ġcitizens": 6839,
      "ict": 6840,
      "Ġcompet": 6841,
      "Ġattrice": 6842,
      "ĠGover": 6843,
      "fess": 6844,
      "Ġpret": 6845,
      "Ġseason": 6846,
      "ĠChris": 6847,
      "alize": 6848,
      "osure": 6849,
      "Ġcompagnia": 6850,
      "Ġkeeping": 6851,
      "Ġmig": 6852,
      "1995": 6853,
      "Ġsott": 6854,
      "AS": 6855,
      "Ġadvers": 6856,
      "ĠRoberto": 6857,
      "Ġestablished": 6858,
      "eling": 6859,
      "Ġinformazioni": 6860,
      "Ġpiccoli": 6861,
      "ĠData": 6862,
      "Ġaccompagn": 6863,
      "Ġapplica": 6864,
      "ĠÎ": 6865,
      "inea": 6866,
      "ival": 6867,
      "ologo": 6868,
      "Ġshows": 6869,
      "Ġclosely": 6870,
      "Ġinitial": 6871,
      "Ġcomunale": 6872,
      "tivate": 6873,
      "ilding": 6874,
      "Ġlatino": 6875,
      "Ġprogramm": 6876,
      "Ġbehaviors": 6877,
      "Ġtechnological": 6878,
      "inari": 6879,
      "97": 6880,
      "Sh": 6881,
      "arp": 6882,
      "Ġrisulta": 6883,
      "ĠNum": 6884,
      "como": 6885,
      "Ġexpectations": 6886,
      "Ġaf": 6887,
      "oglio": 6888,
      "Ġscom": 6889,
      "Ġrilev": 6890,
      "Ġposti": 6891,
      "Ġ1968": 6892,
      "Ġpoll": 6893,
      "acher": 6894,
      "Ġanalyze": 6895,
      "ishing": 6896,
      "ĠAv": 6897,
      "Ġeducational": 6898,
      "Ġrequired": 6899,
      "Ġconcetto": 6900,
      "ĠMaybe": 6901,
      "Ġcapoluogo": 6902,
      "Here": 6903,
      "nam": 6904,
      "olic": 6905,
      "mazione": 6906,
      "Ġtardi": 6907,
      "Ġfundamental": 6908,
      "ĠAlthough": 6909,
      "96": 6910,
      "ultati": 6911,
      "BT": 6912,
      "Ġuser": 6913,
      "Ġsind": 6914,
      "ĠPorto": 6915,
      "ĠÅ": 6916,
      "Ġtax": 6917,
      "ĠClass": 6918,
      "Ġacadem": 6919,
      "Ġmetal": 6920,
      "Ġpercorso": 6921,
      "Ġsurpris": 6922,
      "Ġoperations": 6923,
      "De": 6924,
      "Ġminuti": 6925,
      "Club": 6926,
      "ĠTa": 6927,
      "Ġdepending": 6928,
      "idere": 6929,
      "emplari": 6930,
      "Ġpracticing": 6931,
      "ĠConsiglio": 6932,
      "fortable": 6933,
      "Ġdieci": 6934,
      "03": 6935,
      "Ġveniva": 6936,
      "Ġwhole": 6937,
      "Ġcron": 6938,
      "Ġobj": 6939,
      "ĠAfrican": 6940,
      "Ġago": 6941,
      "ĠFilippo": 6942,
      "Ġessi": 6943,
      "Ġgiocatori": 6944,
      "Ġpursu": 6945,
      "Ġshapes": 6946,
      "Ġsb": 6947,
      "alleria": 6948,
      "Ġinitiatives": 6949,
      "ading": 6950,
      "Ġdog": 6951,
      "Ġlic": 6952,
      "Ã«": 6953,
      "Ġpack": 6954,
      "entro": 6955,
      "ĠOut": 6956,
      "Ġcounter": 6957,
      "autore": 6958,
      "Ġsoon": 6959,
      "Ġstorytelling": 6960,
      "uris": 6961,
      "unte": 6962,
      "py": 6963,
      "Ġgiocato": 6964,
      "Ġjud": 6965,
      "Ġinver": 6966,
      "Ġcraf": 6967,
      "Unione": 6968,
      "Ġcompassion": 6969,
      "Ġpron": 6970,
      "Ġnational": 6971,
      "entrionale": 6972,
      "Ġfindings": 6973,
      "Ġarmi": 6974,
      "Ġpreferences": 6975,
      "Ġmul": 6976,
      "Ġelezioni": 6977,
      "conn": 6978,
      "ken": 6979,
      "Ġped": 6980,
      "ĠPhil": 6981,
      "Ġnavigating": 6982,
      "agne": 6983,
      "Ġstronger": 6984,
      "ĠDep": 6985,
      "ĠSy": 6986,
      "Ġcorp": 6987,
      "ĠKey": 6988,
      "98": 6989,
      "ĠFel": 6990,
      "Ġlarger": 6991,
      "Example": 6992,
      "abilitÃł": 6993,
      "Ġpopolare": 6994,
      "Impero": 6995,
      "Ġstre": 6996,
      "zes": 6997,
      "Ġpietra": 6998,
      "Ġleader": 6999,
      "Ġbrani": 7000,
      "Ġgiusti": 7001,
      "Ġpressi": 7002,
      "Opere": 7003,
      "while": 7004,
      "Ġcanzoni": 7005,
      "Ġcompar": 7006,
      "Ġinspired": 7007,
      "ĠDesign": 7008,
      "ĠLaw": 7009,
      "Ġriusci": 7010,
      "Ġready": 7011,
      "Ġtoward": 7012,
      "Ġfamiliar": 7013,
      "ambito": 7014,
      "Ġstatus": 7015,
      "Ġemerged": 7016,
      "Ġvera": 7017,
      "Ġemerg": 7018,
      "ĠLand": 7019,
      "iling": 7020,
      "Ġtechnique": 7021,
      "eties": 7022,
      "alizzazione": 7023,
      "Ġspar": 7024,
      "gimento": 7025,
      "aca": 7026,
      "veg": 7027,
      "astero": 7028,
      "Ġpassaggio": 7029,
      "vale": 7030,
      "uria": 7031,
      "Ġnas": 7032,
      "teriori": 7033,
      "Ġscrittore": 7034,
      "race": 7035,
      "ubblic": 7036,
      "Ġinspire": 7037,
      "ĠDespite": 7038,
      "Ġdirig": 7039,
      "Ġsimultane": 7040,
      "Ġdemand": 7041,
      "ised": 7042,
      "ĠAI": 7043,
      "ĠDay": 7044,
      "Ġbarri": 7045,
      "ĠBa": 7046,
      "uters": 7047,
      "zionato": 7048,
      "Ġresource": 7049,
      "Ġspagnolo": 7050,
      "Competizioni": 7051,
      "Ġdunque": 7052,
      "Ġpercep": 7053,
      "ĠĊĠĊĠĊ": 7054,
      "))": 7055,
      "ĠUltim": 7056,
      "Ġdedicated": 7057,
      "Ġvalle": 7058,
      "Ġfacente": 7059,
      "ulg": 7060,
      "Ġsearch": 7061,
      "ĠChrist": 7062,
      "Ġriconosci": 7063,
      "Ġcompanies": 7064,
      "Ġastr": 7065,
      "Ġtrovare": 7066,
      "Ġcerca": 7067,
      "field": 7068,
      "Ġespl": 7069,
      "lit": 7070,
      "ĠHealth": 7071,
      "omer": 7072,
      "Ġmigliori": 7073,
      "Ġprofound": 7074,
      "dim": 7075,
      "ĠLiv": 7076,
      "ternal": 7077,
      "ĠYo": 7078,
      "Ġsecure": 7079,
      "bert": 7080,
      "tructure": 7081,
      "Ġstagioni": 7082,
      "Ġluoghi": 7083,
      "Ġferrovi": 7084,
      "usse": 7085,
      "Ġstri": 7086,
      "edrale": 7087,
      "Ġregistro": 7088,
      "edificio": 7089,
      "Ġmoments": 7090,
      "iede": 7091,
      "Ġmedaglia": 7092,
      "marily": 7093,
      "Ġcomposta": 7094,
      "Ġenth": 7095,
      "ĠStefano": 7096,
      "Ġmaggiori": 7097,
      "Ġhot": 7098,
      "Ġcheck": 7099,
      "Ġ1971": 7100,
      "Ġ1969": 7101,
      "otes": 7102,
      "ĠCalifornia": 7103,
      "Ġcausing": 7104,
      "ĠUnito": 7105,
      "fulness": 7106,
      "Ġimpegn": 7107,
      "Ġufficiali": 7108,
      "Ġrecognize": 7109,
      "ĠFra": 7110,
      "ĠLes": 7111,
      "Ġresponse": 7112,
      "rought": 7113,
      "Ġ35": 7114,
      "ĠUsing": 7115,
      "ĠCardinale": 7116,
      "Ġfeder": 7117,
      "ĠWrit": 7118,
      "Ġpractical": 7119,
      "Ġ{": 7120,
      "Ġmentioned": 7121,
      "Ġhelped": 7122,
      "avia": 7123,
      "Ġcong": 7124,
      "azienda": 7125,
      "Throughout": 7126,
      "ĠMur": 7127,
      "angue": 7128,
      "Ġsport": 7129,
      "imperatore": 7130,
      "Ġcritica": 7131,
      "Ġprevis": 7132,
      "ĠBan": 7133,
      "Ġtherapy": 7134,
      "iller": 7135,
      "rivere": 7136,
      "Ġmargin": 7137,
      "Ġdistribution": 7138,
      "zzata": 7139,
      "Ġprosp": 7140,
      "erta": 7141,
      "ĠLi": 7142,
      "42": 7143,
      "set": 7144,
      "ĠConsequently": 7145,
      "ĠSmith": 7146,
      "Ġprevious": 7147,
      "ĠSov": 7148,
      "02": 7149,
      "ateg": 7150,
      "ĠHall": 7151,
      "Ġduca": 7152,
      "ĠExamples": 7153,
      "76": 7154,
      "occup": 7155,
      "ĠPub": 7156,
      "Ġcostruito": 7157,
      "Ġscholars": 7158,
      "Ġfascia": 7159,
      "ĠTro": 7160,
      "1994": 7161,
      "ĠIr": 7162,
      "Ġleaving": 7163,
      "Ġ1967": 7164,
      "ĠAndre": 7165,
      "//": 7166,
      "ĠAlberto": 7167,
      "Ġfacendo": 7168,
      "urata": 7169,
      "Key": 7170,
      "cing": 7171,
      "ĠSchool": 7172,
      "Ġdavanti": 7173,
      "Ġnorms": 7174,
      "Ġordine": 7175,
      "ĠSur": 7176,
      "ĠVilla": 7177,
      "plot": 7178,
      "Ġprimarily": 7179,
      "Ġestr": 7180,
      "Distribuzione": 7181,
      "Ġminer": 7182,
      "ĠIts": 7183,
      "Ġip": 7184,
      "Â²": 7185,
      "Ġanyone": 7186,
      "ĠBrasile": 7187,
      "Ġriman": 7188,
      "Ġhol": 7189,
      "Ġstyles": 7190,
      "Ġyear": 7191,
      "iterrane": 7192,
      "ogen": 7193,
      "Ġcontex": 7194,
      "weet": 7195,
      "Ġexhib": 7196,
      "Ġmassa": 7197,
      "Ġsod": 7198,
      "ĠArg": 7199,
      "Ġcontinues": 7200,
      "ĠPia": 7201,
      "Ġachieve": 7202,
      "ĠCup": 7203,
      "olini": 7204,
      "world": 7205,
      "Ġproduct": 7206,
      "ticed": 7207,
      "olico": 7208,
      "urance": 7209,
      "ĠCare": 7210,
      "non": 7211,
      "Ġthrill": 7212,
      "Ġnotable": 7213,
      "Ġbenefit": 7214,
      "cm": 7215,
      "ĠSalv": 7216,
      "Ġsmart": 7217,
      "Ġbronzo": 7218,
      "Ġvulner": 7219,
      "Ġanimali": 7220,
      "ĠIndia": 7221,
      "ulating": 7222,
      "Ġmatem": 7223,
      "esis": 7224,
      "Ġsicurezza": 7225,
      "istici": 7226,
      "ĠEv": 7227,
      "Ġscal": 7228,
      "ĠFederico": 7229,
      "Ġstessi": 7230,
      "Ġfondata": 7231,
      "Ġgiovan": 7232,
      "emble": 7233,
      "ĠSub": 7234,
      "Ġanalyzing": 7235,
      "ativamente": 7236,
      "Ġaccording": 7237,
      "ĠExploring": 7238,
      "Ġradi": 7239,
      "ensis": 7240,
      "Ġexplo": 7241,
      "Ġcontiene": 7242,
      "Ġdispar": 7243,
      "Ġinstitutions": 7244,
      "Ġnero": 7245,
      "Ġmit": 7246,
      "Ġcambi": 7247,
      "Ġdri": 7248,
      "ĠXVI": 7249,
      "illy": 7250,
      "Ġconferm": 7251,
      "Ġeither": 7252,
      "bio": 7253,
      "Ġnight": 7254,
      "amor": 7255,
      "Ġsecoli": 7256,
      "Ġsocieties": 7257,
      "urch": 7258,
      "43": 7259,
      "ache": 7260,
      "Ġminor": 7261,
      "Ġgestione": 7262,
      "iety": 7263,
      "issima": 7264,
      "AA": 7265,
      "Ġrespond": 7266,
      "hic": 7267,
      "Ġquartiere": 7268,
      "Ġvive": 7269,
      "ĠGreen": 7270,
      "anal": 7271,
      "ĠEnglish": 7272,
      "Ġgeomet": 7273,
      "Ġtitolare": 7274,
      "Ġetc": 7275,
      "Ġpersist": 7276,
      "Ġhappened": 7277,
      "Ġtales": 7278,
      "tages": 7279,
      "unicip": 7280,
      "ĠOlimp": 7281,
      "colo": 7282,
      "Ġsupporting": 7283,
      "ĠSto": 7284,
      "inÃ²": 7285,
      "ĠEmb": 7286,
      "mit": 7287,
      "86": 7288,
      "],": 7289,
      "Ġculturale": 7290,
      "Risultati": 7291,
      "Ġisol": 7292,
      "Ġpeso": 7293,
      "Ġsympt": 7294,
      "Ġassum": 7295,
      "Ġopin": 7296,
      "Ġpremi": 7297,
      "Ol": 7298,
      "tima": 7299,
      "ĠQue": 7300,
      "enever": 7301,
      "utili": 7302,
      "Mar": 7303,
      "Ġidentities": 7304,
      "edom": 7305,
      "ĠHistorical": 7306,
      "Ġmalatti": 7307,
      "ĠPet": 7308,
      "Ġpreso": 7309,
      "ĠBig": 7310,
      "Ġvalid": 7311,
      "vizzera": 7312,
      "ES": 7313,
      "Ġriguard": 7314,
      "Ġbox": 7315,
      "Ag": 7316,
      "Ġpassa": 7317,
      "tte": 7318,
      "Ġfanno": 7319,
      "Ġorder": 7320,
      "ĠPrincip": 7321,
      "ĠBill": 7322,
      "Ġcambio": 7323,
      "ĠSand": 7324,
      "ĠCO": 7325,
      "icians": 7326,
      "Ġposition": 7327,
      "Ġoil": 7328,
      "rated": 7329,
      "Ġottenuto": 7330,
      "tÃ²": 7331,
      "Ġesemplari": 7332,
      "Ġincontr": 7333,
      "resci": 7334,
      "Ġhear": 7335,
      "Ð°": 7336,
      "ĠsposÃ²": 7337,
      "ualmente": 7338,
      "Ġpall": 7339,
      "Ġsezione": 7340,
      "Ġmini": 7341,
      "ĠDig": 7342,
      "Ġconcentr": 7343,
      "Ġcombat": 7344,
      "Ġimproving": 7345,
      "Ġreson": 7346,
      "Ġstates": 7347,
      "irm": 7348,
      "Ġnavi": 7349,
      "Ġurb": 7350,
      "ded": 7351,
      "Ġcil": 7352,
      "ctional": 7353,
      "ĠCristo": 7354,
      "Ġvecchio": 7355,
      "Ġgreco": 7356,
      "olet": 7357,
      "utare": 7358,
      "ĠCra": 7359,
      "Ġgig": 7360,
      "uge": 7361,
      "Ġsuon": 7362,
      "Ġconosciuto": 7363,
      "Ġpolizia": 7364,
      ".'": 7365,
      "Ġneighbor": 7366,
      "Ġacknow": 7367,
      "Ġintelligence": 7368,
      "ĠRis": 7369,
      "2015": 7370,
      "Ġstella": 7371,
      "Äĩ": 7372,
      "Ġconnected": 7373,
      "ĠdifficoltÃł": 7374,
      "ĠMary": 7375,
      "Ġstorica": 7376,
      "ER": 7377,
      "Ġquell": 7378,
      "Ġdietro": 7379,
      "Ġamici": 7380,
      "ĠOri": 7381,
      "retta": 7382,
      "Ġpotenza": 7383,
      "Ġweight": 7384,
      "Ġisc": 7385,
      "Ġmaxim": 7386,
      "eroes": 7387,
      "ĠRai": 7388,
      "Ġantico": 7389,
      "Ġapplication": 7390,
      "Ġbritannico": 7391,
      "otball": 7392,
      "ucc": 7393,
      "Ġlaure": 7394,
      "Ġsaw": 7395,
      "Ġnegative": 7396,
      "zzare": 7397,
      "Ġarriva": 7398,
      "isodio": 7399,
      "Ġaffect": 7400,
      "ĠBi": 7401,
      "ĠXIX": 7402,
      "Ġvolo": 7403,
      "rend": 7404,
      "Ġweb": 7405,
      "Ġprevede": 7406,
      "Ġvuole": 7407,
      "Ġvittorie": 7408,
      "adi": 7409,
      "ĠOper": 7410,
      "Ġucciso": 7411,
      "Ġbit": 7412,
      "Ġmessages": 7413,
      "acks": 7414,
      "Ġvinse": 7415,
      "ĠGiacomo": 7416,
      "Ġsoff": 7417,
      "Ġlower": 7418,
      "Ġbassa": 7419,
      "ĠMichele": 7420,
      "Ġdesigns": 7421,
      "ĠGood": 7422,
      "Ġsole": 7423,
      "Ġdiscrimin": 7424,
      "Ġabbia": 7425,
      "irth": 7426,
      "tina": 7427,
      "Ġchim": 7428,
      "Ġparticolarmente": 7429,
      "Ġstarting": 7430,
      "Ġcias": 7431,
      "Ġlinee": 7432,
      "Ġmemory": 7433,
      "Ġadjust": 7434,
      "1993": 7435,
      "Ġrub": 7436,
      "Ġaustri": 7437,
      "ĠAra": 7438,
      "Ġmonth": 7439,
      "ologici": 7440,
      "Ġocchi": 7441,
      "Ġgiro": 7442,
      "Ġmassimo": 7443,
      "Ġtitoli": 7444,
      "Ġequal": 7445,
      "Ġconfronti": 7446,
      "usion": 7447,
      "Ġflow": 7448,
      "Ġfratelli": 7449,
      "itali": 7450,
      "Ġconflicts": 7451,
      "ĠBritish": 7452,
      "ĠFrance": 7453,
      "Ġteoria": 7454,
      "ĠJoseph": 7455,
      "Ġobb": 7456,
      "ĠLuca": 7457,
      "Ġvirtual": 7458,
      "Ġlettera": 7459,
      "Ġreview": 7460,
      "Ġtens": 7461,
      "ĠJam": 7462,
      "Ġcaccia": 7463,
      "ĠPark": 7464,
      "bu": 7465,
      "Ġlik": 7466,
      "udine": 7467,
      "Ġsmaller": 7468,
      "ĠPac": 7469,
      "Ġservizi": 7470,
      "ĠLoc": 7471,
      "Ġkm": 7472,
      "ĠDu": 7473,
      "unting": 7474,
      "lip": 7475,
      "Ġcreation": 7476,
      "Ġovest": 7477,
      "andom": 7478,
      "ĠPor": 7479,
      "Ġcreare": 7480,
      "untain": 7481,
      "41": 7482,
      "Ġprotection": 7483,
      "zation": 7484,
      "bia": 7485,
      "Ġvince": 7486,
      "Ġpref": 7487,
      "Come": 7488,
      "lione": 7489,
      "Ġhy": 7490,
      "Ġtennis": 7491,
      "Ġarray": 7492,
      "Ġversioni": 7493,
      "Ġpratica": 7494,
      "Ġproperties": 7495,
      "Ġinterv": 7496,
      "66": 7497,
      "ĠIsland": 7498,
      "Ġtecnico": 7499,
      "Ġauthentic": 7500,
      "Ġscopre": 7501,
      "Ġtecniche": 7502,
      "Ġtedeschi": 7503,
      "ĠLig": 7504,
      "alities": 7505,
      "Ġaree": 7506,
      "Ġaudiences": 7507,
      "ĠSar": 7508,
      "Ġanticip": 7509,
      "Ġadults": 7510,
      "Ġeletto": 7511,
      "Ġoggetto": 7512,
      "Ġcircum": 7513,
      "venile": 7514,
      "eff": 7515,
      "Ġderiva": 7516,
      "Ġfinal": 7517,
      "primo": 7518,
      "ĠportÃ²": 7519,
      "ervazione": 7520,
      "Ġbird": 7521,
      "Ġdedicata": 7522,
      "otidi": 7523,
      "ĠBarb": 7524,
      "Ġlont": 7525,
      "Ġcosts": 7526,
      "Ġunderlying": 7527,
      "Ġcampione": 7528,
      "Ġnos": 7529,
      "urazione": 7530,
      "opoli": 7531,
      "Ġcolonna": 7532,
      "Ġconclud": 7533,
      "Ġtub": 7534,
      "Disc": 7535,
      "ficata": 7536,
      "Ġtess": 7537,
      "ĠWind": 7538,
      "Ġsint": 7539,
      "Ġsignifica": 7540,
      "Ġ1966": 7541,
      "Ġupd": 7542,
      "Ġsot": 7543,
      "ĠHistory": 7544,
      "()`": 7545,
      "iasi": 7546,
      "asons": 7547,
      "Ġroot": 7548,
      "Ma": 7549,
      "Ġtradition": 7550,
      "Ġmusical": 7551,
      "Ġsoldati": 7552,
      "Ġcenturies": 7553,
      "Ġinvent": 7554,
      "Ġskin": 7555,
      "87": 7556,
      "Ġsistemi": 7557,
      "Ġcarattere": 7558,
      "Ġcerti": 7559,
      "oke": 7560,
      "Ġaccord": 7561,
      "den": 7562,
      "Ġanimal": 7563,
      "elmo": 7564,
      "Ġtali": 7565,
      "Ġsepol": 7566,
      "ulo": 7567,
      "Ġcolloc": 7568,
      "Ġsorella": 7569,
      "San": 7570,
      "utato": 7571,
      "Ġinstr": 7572,
      "Ġmoto": 7573,
      "Ġlayers": 7574,
      "orsi": 7575,
      "Ġcountless": 7576,
      "Once": 7577,
      "entre": 7578,
      "Ġclaim": 7579,
      "Ġcomplete": 7580,
      "iles": 7581,
      "Ġresponsibility": 7582,
      "Ġinherent": 7583,
      "Ġacquist": 7584,
      "Ġdiritti": 7585,
      "ĠSul": 7586,
      "atiche": 7587,
      "Ġblood": 7588,
      "BA": 7589,
      "Ġmissione": 7590,
      "ceed": 7591,
      "mas": 7592,
      "Ġfinanzi": 7593,
      "Ġsleep": 7594,
      "Ġautore": 7595,
      "ilmente": 7596,
      "Ġroman": 7597,
      "Ġseemingly": 7598,
      "ogna": 7599,
      "Ġvillaggio": 7600,
      "Ġvary": 7601,
      "Ġtema": 7602,
      "met": 7603,
      "ĠCompany": 7604,
      "Ġpatience": 7605,
      "opol": 7606,
      "Ġattorno": 7607,
      "Ġcomplexity": 7608,
      "Ġpatient": 7609,
      "Ġtesti": 7610,
      "ĠAnti": 7611,
      "ĠSanto": 7612,
      "Ä«": 7613,
      "Ġlista": 7614,
      "ounds": 7615,
      "Ġproprie": 7616,
      "ĠPower": 7617,
      "ologie": 7618,
      "ype": 7619,
      "ĠMondo": 7620,
      "Ġnoticed": 7621,
      "ĠHenry": 7622,
      "Ġcompare": 7623,
      "water": 7624,
      "ĠpassÃ²": 7625,
      "Ġmatters": 7626,
      "ennio": 7627,
      "Ġposta": 7628,
      "contro": 7629,
      "Ġrepl": 7630,
      "Ġrobust": 7631,
      "Ð¾": 7632,
      "ĠUse": 7633,
      "Ġafferma": 7634,
      "antly": 7635,
      "Ġlandscapes": 7636,
      "Ġinsight": 7637,
      "Ġrecognizing": 7638,
      "Ġsacri": 7639,
      "uci": 7640,
      "Ġenc": 7641,
      "ĠModern": 7642,
      "Ġsettimana": 7643,
      "Ġknew": 7644,
      "Ġconfine": 7645,
      "Ġdiventare": 7646,
      "Ordine": 7647,
      "xy": 7648,
      "iliano": 7649,
      "Ġsituation": 7650,
      "alizzato": 7651,
      "Ġpoteva": 7652,
      "Ġpul": 7653,
      "Ġexcess": 7654,
      "Ġpolitics": 7655,
      "1992": 7656,
      "Ġremark": 7657,
      "Ġcuore": 7658,
      "vention": 7659,
      "entra": 7660,
      "Ġteaching": 7661,
      "Ġdelicious": 7662,
      "Ġfacing": 7663,
      "iner": 7664,
      "Ġragazzo": 7665,
      "Ġcaratterizzata": 7666,
      "Å«": 7667,
      "Ġfoundation": 7668,
      "jo": 7669,
      "Ġvs": 7670,
      "Ġpopolo": 7671,
      "Ġprocessing": 7672,
      "Ġflex": 7673,
      "Ġcraft": 7674,
      "There": 7675,
      "Ġlibri": 7676,
      "Ġissue": 7677,
      "Ġbrought": 7678,
      "Ġprem": 7679,
      "ares": 7680,
      "Ġsumm": 7681,
      "Ġmanuf": 7682,
      "1990": 7683,
      "Ġinternazionali": 7684,
      "erb": 7685,
      "Ġintroduce": 7686,
      "Ġreport": 7687,
      "ĠThen": 7688,
      "lines": 7689,
      "Ġazi": 7690,
      "itale": 7691,
      "Ġpubblicata": 7692,
      "Ph": 7693,
      "utti": 7694,
      "Ġstage": 7695,
      "Ġpicture": 7696,
      "ĠEp": 7697,
      "Ġ1945": 7698,
      "Ġservice": 7699,
      "ĠStud": 7700,
      "ĠCina": 7701,
      "Ġwood": 7702,
      "Ġreveal": 7703,
      "Ġquite": 7704,
      "ĠBoth": 7705,
      "Ġsuddivis": 7706,
      "ĠDomen": 7707,
      "olfo": 7708,
      "However": 7709,
      "Ġvalori": 7710,
      "iled": 7711,
      "Ġchiese": 7712,
      "Ġcomprom": 7713,
      "Ġdens": 7714,
      "ecture": 7715,
      "Ġoggetti": 7716,
      "Ġ1965": 7717,
      "Ġvac": 7718,
      "Ġprovoc": 7719,
      "ettere": 7720,
      "Ġsatis": 7721,
      "iding": 7722,
      "Ġbell": 7723,
      "ĠTex": 7724,
      "Activity": 7725,
      "ĠVia": 7726,
      "Ġecos": 7727,
      "Ġsuffici": 7728,
      "Ġimped": 7729,
      "ĠAmong": 7730,
      "Ġskill": 7731,
      "Ġasking": 7732,
      "organ": 7733,
      "Ġfort": 7734,
      "Ġesper": 7735,
      "Ġwhenever": 7736,
      "orous": 7737,
      "Ġpromozione": 7738,
      "Ġpiccole": 7739,
      "alsiasi": 7740,
      "liance": 7741,
      "MS": 7742,
      "Ġcostituito": 7743,
      "Ġscritta": 7744,
      "Rem": 7745,
      "ional": 7746,
      "Ġtrade": 7747,
      "ĠâĶ": 7748,
      "Ġperspective": 7749,
      "ordinary": 7750,
      "Ġresistance": 7751,
      "Ġdollari": 7752,
      "ĠCase": 7753,
      "Ġcreato": 7754,
      "ĠFut": 7755,
      "ĠSuch": 7756,
      "ĠEle": 7757,
      "stra": 7758,
      "Ġfellow": 7759,
      "Ġesiste": 7760,
      "eneva": 7761,
      "Ġenthusias": 7762,
      "Ġrealizzazione": 7763,
      "atively": 7764,
      "Ġminis": 7765,
      "Ġlens": 7766,
      "Ġinterno": 7767,
      "uda": 7768,
      "Ġthereby": 7769,
      "Ġfunctional": 7770,
      "wing": 7771,
      "Ġpartecipato": 7772,
      "ĠSono": 7773,
      "ĠLad": 7774,
      "Ġtentativo": 7775,
      "Ġmoderna": 7776,
      "burgo": 7777,
      "pa": 7778,
      "formazione": 7779,
      "Ġfrase": 7780,
      "enly": 7781,
      "Ġpossibilities": 7782,
      "Ġdisplay": 7783,
      "irone": 7784,
      "ĠBerg": 7785,
      "Ġgiornata": 7786,
      "Ġgently": 7787,
      "iblioteca": 7788,
      "endente": 7789,
      "ĠUnder": 7790,
      "ĠPresidente": 7791,
      "ĠFred": 7792,
      "Ġapprov": 7793,
      "angelo": 7794,
      "ĠMond": 7795,
      "Ġcyc": 7796,
      "Ġtom": 7797,
      "Ġexplored": 7798,
      "astly": 7799,
      "2016": 7800,
      "Ġinspiration": 7801,
      "Caratter": 7802,
      "Ġfatti": 7803,
      "Ġcommedia": 7804,
      "Ġgri": 7805,
      "Ġrun": 7806,
      "Ġdiplom": 7807,
      "Ġeasily": 7808,
      "Ġprivate": 7809,
      "Ġevitare": 7810,
      "orific": 7811,
      "Ġengineering": 7812,
      "Questa": 7813,
      "Ġimpacts": 7814,
      "Ġpensi": 7815,
      "Filmografia": 7816,
      "edio": 7817,
      "ĠHouse": 7818,
      "enomen": 7819,
      "Ġpainting": 7820,
      "ĠLee": 7821,
      "Ġdisease": 7822,
      "ocks": 7823,
      "Ġregional": 7824,
      "tell": 7825,
      "Ġdifferenti": 7826,
      "ĠRoman": 7827,
      "Ġ1964": 7828,
      "ĠMiss": 7829,
      "ĠGuerra": 7830,
      "Ġfondo": 7831,
      "Ġgets": 7832,
      "Ġbuilt": 7833,
      "Ġthous": 7834,
      "cuni": 7835,
      "Ġcampionati": 7836,
      "Ġaccurate": 7837,
      "Ġtrag": 7838,
      "organizzazione": 7839,
      "ĠParis": 7840,
      "cento": 7841,
      "ĠPra": 7842,
      "ĠPot": 7843,
      "Ġmorto": 7844,
      "light": 7845,
      "ĠMem": 7846,
      "Ġdimostra": 7847,
      "Ġsino": 7848,
      "Ġwhose": 7849,
      "Ġcollo": 7850,
      "ĠTechn": 7851,
      "Ġscompar": 7852,
      "ĠAlb": 7853,
      "Ġroots": 7854,
      "Ġ500": 7855,
      "Ġcases": 7856,
      "tition": 7857,
      "Ġmotori": 7858,
      "ideo": 7859,
      "ĠGreg": 7860,
      "Ġturned": 7861,
      "Ġeuropea": 7862,
      "Ġrapporti": 7863,
      "Ġsfrut": 7864,
      "ĠLomb": 7865,
      "Ġ>": 7866,
      "well": 7867,
      "ĠGh": 7868,
      "Ġremarkable": 7869,
      "Ġriten": 7870,
      "osen": 7871,
      "Ġorigini": 7872,
      "ĠJes": 7873,
      "Ġsong": 7874,
      "Ġdura": 7875,
      "olas": 7876,
      "Ġcapture": 7877,
      "lessly": 7878,
      "Ġdamage": 7879,
      "Ġnecessario": 7880,
      "Ġsoltanto": 7881,
      "89": 7882,
      "rows": 7883,
      "argento": 7884,
      "Ġarch": 7885,
      "ĠYoung": 7886,
      "matic": 7887,
      "Ġcomputers": 7888,
      "Ġsele": 7889,
      "Ġanxiety": 7890,
      "Calciatori": 7891,
      "anwhile": 7892,
      "Ġfamiglie": 7893,
      "Ġqualsiasi": 7894,
      "ĠLorenzo": 7895,
      "Why": 7896,
      "connected": 7897,
      "Ġtailored": 7898,
      "TA": 7899,
      "aby": 7900,
      "ĠLittle": 7901,
      "Ġequipment": 7902,
      "Ġdesired": 7903,
      "Ġcarbon": 7904,
      "eterm": 7905,
      "enzia": 7906,
      "Ġextraordinary": 7907,
      "Ġcommunicate": 7908,
      "Ġpolitiche": 7909,
      "Ġ1943": 7910,
      "Ġparola": 7911,
      "Ġencourage": 7912,
      "itario": 7913,
      "ĠJour": 7914,
      "ĠTeam": 7915,
      "acies": 7916,
      "ĠGesÃ¹": 7917,
      "Ġonda": 7918,
      "Ġmetropolit": 7919,
      "bus": 7920,
      "Ġreligion": 7921,
      "Ġinfras": 7922,
      "ript": 7923,
      "Ġlocation": 7924,
      "Ġsets": 7925,
      "loud": 7926,
      "Ġpiedi": 7927,
      "ĠPalermo": 7928,
      "Ġdance": 7929,
      "Ġdishes": 7930,
      "Ġsovie": 7931,
      "Ġottiene": 7932,
      "ĠFar": 7933,
      "Ġopportunity": 7934,
      "Ġero": 7935,
      "CD": 7936,
      "Ġoce": 7937,
      "Ġcognitive": 7938,
      "Ġconflitto": 7939,
      "Ġmutual": 7940,
      "Ġminutes": 7941,
      "Me": 7942,
      "CO": 7943,
      "Ġthorough": 7944,
      "worth": 7945,
      "77": 7946,
      "book": 7947,
      "ĠXIII": 7948,
      "Ġreinfor": 7949,
      "Ġricevuto": 7950,
      "Ġterreno": 7951,
      "illing": 7952,
      "aks": 7953,
      "Ġmajor": 7954,
      "Ġintrigu": 7955,
      "rod": 7956,
      "Ġwrite": 7957,
      "rivo": 7958,
      "ĠFI": 7959,
      "Ġmaniera": 7960,
      "zer": 7961,
      "Ġfeaturing": 7962,
      "1991": 7963,
      "Ġpubblicazione": 7964,
      "Ġappartenente": 7965,
      "Ġtasti": 7966,
      "Ġhom": 7967,
      "ĠDan": 7968,
      "edale": 7969,
      "ĠLud": 7970,
      "Ġlimited": 7971,
      "sol": 7972,
      "Ġpotentially": 7973,
      "Ġreduced": 7974,
      "Ãº": 7975,
      "anzia": 7976,
      "ĠPaesi": 7977,
      "Ġbag": 7978,
      "ĠSeg": 7979,
      "Ġcappella": 7980,
      "Ġconseguenza": 7981,
      "ĠStep": 7982,
      "Ġmatrix": 7983,
      "Te": 7984,
      "ĠEra": 7985,
      "Ġevolution": 7986,
      "Ġlun": 7987,
      "rench": 7988,
      "su": 7989,
      "Ġfacilitate": 7990,
      "?**": 7991,
      "Ġahead": 7992,
      "56": 7993,
      "ĠquantitÃł": 7994,
      "VD": 7995,
      "ĠAmb": 7996,
      "Ġconoscenza": 7997,
      "Ġdefine": 7998,
      "Ġcreates": 7999,
      "Sing": 8000,
      "Ġlast": 8001,
      "Ġesord": 8002,
      "tituzione": 8003,
      "Ã©e": 8004,
      "ĠGruppo": 8005,
      "itazione": 8006,
      "Da": 8007,
      "Ġgrapp": 8008,
      "Ġmechanisms": 8009,
      "Ġmaglia": 8010,
      "Ġlago": 8011,
      "Ġdistingu": 8012,
      "mental": 8013,
      "Ġdynamic": 8014,
      "Ġritorn": 8015,
      "visione": 8016,
      "Ġcostruita": 8017,
      "ĠVittorio": 8018,
      "Ġvideogio": 8019,
      "nic": 8020,
      "Ġded": 8021,
      "Ġwaiting": 8022,
      "Ġfior": 8023,
      "Ġmusicali": 8024,
      "Ġexercise": 8025,
      "ĠJew": 8026,
      "ĠSocial": 8027,
      "ĠDue": 8028,
      "Ġstop": 8029,
      "Ġsum": 8030,
      "Ġcapitano": 8031,
      "house": 8032,
      "onic": 8033,
      "Ġstream": 8034,
      "olla": 8035,
      "Ġtorna": 8036,
      "Ġnomi": 8037,
      "`,": 8038,
      "Ġquotidi": 8039,
      "irs": 8040,
      "Ġcontinua": 8041,
      "Ġpianta": 8042,
      "Ġsav": 8043,
      "Ġpresti": 8044,
      "Ġreason": 8045,
      "Ġsettentrionale": 8046,
      "Ġincorporate": 8047,
      "Ġaccus": 8048,
      "Ġsangue": 8049,
      "enzio": 8050,
      "Ġlistening": 8051,
      "Ġ1961": 8052,
      "Ġrout": 8053,
      "ĠMen": 8054,
      "ĠIsra": 8055,
      "Ġstorici": 8056,
      "Ġpropriet": 8057,
      "ĠTemp": 8058,
      "Ġcrit": 8059,
      "ĠSig": 8060,
      "Ġinizio": 8061,
      "pet": 8062,
      "Ġperhaps": 8063,
      "ĠRiv": 8064,
      "ighten": 8065,
      "Ġdark": 8066,
      "Ġsurviv": 8067,
      "Ġ1963": 8068,
      "intera": 8069,
      "Ġcorrect": 8070,
      "essione": 8071,
      "ianto": 8072,
      "ready": 8073,
      "ellone": 8074,
      "anche": 8075,
      "Ġmotivo": 8076,
      "Ġletteratura": 8077,
      "Ġreper": 8078,
      "Ġcomponenti": 8079,
      "Ġacquis": 8080,
      "ĠJohns": 8081,
      "ĠQui": 8082,
      "ĠJer": 8083,
      "issioni": 8084,
      "Ġpilota": 8085,
      "Ġgiving": 8086,
      "Ġnearby": 8087,
      "Ġlegno": 8088,
      "ziano": 8089,
      "ĠConclusion": 8090,
      "Ġmodelli": 8091,
      "92": 8092,
      "ĠOb": 8093,
      "Ġwaste": 8094,
      "100": 8095,
      "Ġrelax": 8096,
      "compass": 8097,
      "Ġmio": 8098,
      "aker": 8099,
      "ĠSat": 8100,
      "Ġfrequently": 8101,
      "iettivo": 8102,
      "Ġrelated": 8103,
      "orf": 8104,
      "Ġsoggetto": 8105,
      "Ġnecessit": 8106,
      "ĠLiber": 8107,
      "Ġfear": 8108,
      "Ġbuona": 8109,
      "eline": 8110,
      "Ġ1962": 8111,
      "Ġecosyste": 8112,
      "Ġfront": 8113,
      "Ġinaug": 8114,
      "Ġcutting": 8115,
      "Ġrende": 8116,
      "ket": 8117,
      "Ġatmos": 8118,
      "Ġanything": 8119,
      "vera": 8120,
      "Ġpolitici": 8121,
      "Ġpittore": 8122,
      "Ġbias": 8123,
      "Ġparla": 8124,
      "Su": 8125,
      "ĠBay": 8126,
      "Ġgirone": 8127,
      "Ġice": 8128,
      "Ġallenatore": 8129,
      "rong": 8130,
      "Ġrequiring": 8131,
      "ĠFab": 8132,
      "Ġhealing": 8133,
      "Ġsebbene": 8134,
      "Ġsustainability": 8135,
      "ĠUS": 8136,
      "cho": 8137,
      "ĠAngeles": 8138,
      "ĠBet": 8139,
      "Ġseek": 8140,
      "Ġcinqu": 8141,
      "Ġsecre": 8142,
      "ĠContempor": 8143,
      "ĠRay": 8144,
      "Ġmaschi": 8145,
      "Ġpross": 8146,
      "wise": 8147,
      "fficio": 8148,
      "Ġcamera": 8149,
      "Ġrichiesta": 8150,
      "Ġexamination": 8151,
      "Ġconsidering": 8152,
      "ĠEdizioni": 8153,
      "Ġtransl": 8154,
      "Ġbran": 8155,
      "1989": 8156,
      "Ġfacciata": 8157,
      "Ġutilizzata": 8158,
      "Ġobstac": 8159,
      "Ġeffort": 8160,
      "asier": 8161,
      "Ġcarry": 8162,
      "ilib": 8163,
      "ĠBus": 8164,
      "Ġcrisi": 8165,
      "Ġmedicine": 8166,
      "tainment": 8167,
      "istan": 8168,
      "Ġbordo": 8169,
      "ĠCentro": 8170,
      "ĠVerg": 8171,
      "Ġdipend": 8172,
      "olto": 8173,
      "rali": 8174,
      "Ġacademic": 8175,
      "ĠStory": 8176,
      "Ġsimultaneously": 8177,
      "inse": 8178,
      "Ġgrat": 8179,
      "Ġcommitment": 8180,
      "Ġregions": 8181,
      "Person": 8182,
      "ĠGian": 8183,
      "stances": 8184,
      "lev": 8185,
      "Ġimmig": 8186,
      "emia": 8187,
      "Ġparties": 8188,
      "yo": 8189,
      "ĠBudd": 8190,
      "Ġsymptoms": 8191,
      "Ġsocc": 8192,
      "Ġles": 8193,
      "fri": 8194,
      "Ġstaff": 8195,
      "onta": 8196,
      "room": 8197,
      "Ġcooper": 8198,
      "Ġtalking": 8199,
      "Ġavanz": 8200,
      "amica": 8201,
      "Ġcontributing": 8202,
      "Ġsemplic": 8203,
      "Ġrace": 8204,
      "Ġsource": 8205,
      "Ġalgorithms": 8206,
      "Ġsegre": 8207,
      "Ġcomandante": 8208,
      "Ġara": 8209,
      "Ġchiede": 8210,
      "Ġbott": 8211,
      "Ġelement": 8212,
      "Ġencompass": 8213,
      "ĠUltimately": 8214,
      "ĠNight": 8215,
      "tage": 8216,
      "Ġconflict": 8217,
      "ĠAnal": 8218,
      "2017": 8219,
      "Ġdifference": 8220,
      "aglie": 8221,
      "ibi": 8222,
      "Ġinclusive": 8223,
      "Ġbrand": 8224,
      "He": 8225,
      "Ġpover": 8226,
      "icidio": 8227,
      "Ġadott": 8228,
      "Ġrequirements": 8229,
      "Ġexternal": 8230,
      "ĠCel": 8231,
      "Ġcolori": 8232,
      "ĠPass": 8233,
      "ĠFal": 8234,
      "Ġgot": 8235,
      "Ġcomplexities": 8236,
      "Ġbud": 8237,
      "Ġtracce": 8238,
      "Ġroll": 8239,
      "ĠGri": 8240,
      "Ġcarro": 8241,
      "OS": 8242,
      "nazionale": 8243,
      "iono": 8244,
      "âĢĿ,": 8245,
      "Ġextract": 8246,
      "ĠAsia": 8247,
      "Ġnacque": 8248,
      "Ġmilitary": 8249,
      "Ġeuropeo": 8250,
      "Ġcardinale": 8251,
      "Ġdebates": 8252,
      "ilomet": 8253,
      "Ġcompi": 8254,
      "Ġbarriers": 8255,
      "Ġexposure": 8256,
      "Ġlotta": 8257,
      "Ġsugger": 8258,
      "han": 8259,
      "ĠEduc": 8260,
      "Ã¼r": 8261,
      "inge": 8262,
      "Ġefficiency": 8263,
      "ulated": 8264,
      "Ġobject": 8265,
      "Ġdiver": 8266,
      "Ġexpressions": 8267,
      "ĊĊĠ": 8268,
      "Ġvoice": 8269,
      "ĠPapa": 8270,
      "ortun": 8271,
      "Ġapost": 8272,
      "Ġnip": 8273,
      "ĠLike": 8274,
      "Ġ1950": 8275,
      "Ġtornare": 8276,
      "Ġlooked": 8277,
      "Ġparco": 8278,
      "osce": 8279,
      "Ġsoli": 8280,
      "ĠTal": 8281,
      "Ġcoordin": 8282,
      "Ġnovels": 8283,
      "ĠGabri": 8284,
      "ĠRoss": 8285,
      "vision": 8286,
      "erman": 8287,
      "Ġacque": 8288,
      "AI": 8289,
      "ĠMake": 8290,
      "retario": 8291,
      "Ġeasier": 8292,
      "ĠNi": 8293,
      "spec": 8294,
      "Ġrecomm": 8295,
      "Ġvilla": 8296,
      "ĠIslam": 8297,
      "holders": 8298,
      "Ġsonora": 8299,
      "Ġampli": 8300,
      "Ġconsistent": 8301,
      "Ġavviene": 8302,
      "ĠAlf": 8303,
      "Ġwhite": 8304,
      "Ġalready": 8305,
      "ĠTomm": 8306,
      "Ġblack": 8307,
      "Ġlascia": 8308,
      "Ġgeneralmente": 8309,
      "Ġaliment": 8310,
      "fice": 8311,
      "Man": 8312,
      "Ġsegno": 8313,
      "Ġaffecting": 8314,
      "ĠBru": 8315,
      "Cor": 8316,
      "ĠBart": 8317,
      "Ġpasso": 8318,
      "ardino": 8319,
      "Ġcontrovers": 8320,
      "ĠAustralia": 8321,
      "Ġvesti": 8322,
      "Ġstrumenti": 8323,
      "ĠMarina": 8324,
      "unk": 8325,
      "otesi": 8326,
      "Ġdeliv": 8327,
      "ĠHere": 8328,
      "Ġministro": 8329,
      "test": 8330,
      "Ġorgani": 8331,
      "Ġfonti": 8332,
      "Ġimposs": 8333,
      "Ġantica": 8334,
      "Caratteristiche": 8335,
      "Ġnato": 8336,
      "ĠRus": 8337,
      "ĠentrÃ²": 8338,
      "Ġsymbol": 8339,
      "ĠEst": 8340,
      "Ġorganization": 8341,
      "osito": 8342,
      "ĠTale": 8343,
      "ĠMu": 8344,
      "Ġrispettivamente": 8345,
      "ettare": 8346,
      "rome": 8347,
      "AN": 8348,
      "ositÃł": 8349,
      "ĠPlus": 8350,
      "Ġprendere": 8351,
      "ĠAccording": 8352,
      "ĠDire": 8353,
      "aglio": 8354,
      "Ġgem": 8355,
      "omeo": 8356,
      "Ġinteresse": 8357,
      "episodio": 8358,
      "Ġfrag": 8359,
      "utati": 8360,
      "Ġtext": 8361,
      "Ġincludes": 8362,
      "oline": 8363,
      "Ġcanale": 8364,
      "Ġexplained": 8365,
      "Ġforce": 8366,
      "ups": 8367,
      "mann": 8368,
      "Ġcontrast": 8369,
      "Ġug": 8370,
      "Ġcondition": 8371,
      "Ġsimili": 8372,
      "ĠCesare": 8373,
      "unny": 8374,
      "Ġpiazz": 8375,
      "bro": 8376,
      "Ġcontent": 8377,
      "ĠBened": 8378,
      "Ġelectron": 8379,
      "Ġnotevole": 8380,
      "://": 8381,
      "Ġminimize": 8382,
      "Ġfully": 8383,
      "Ġerr": 8384,
      "Ġcontexts": 8385,
      "94": 8386,
      "Ġperman": 8387,
      "gire": 8388,
      "Ġlearners": 8389,
      "ĠBad": 8390,
      "Ġimper": 8391,
      "Ġ1944": 8392,
      "emi": 8393,
      "Ġstere": 8394,
      "Ġcattolica": 8395,
      "Ġcorsa": 8396,
      "Ġrifug": 8397,
      "oga": 8398,
      "terior": 8399,
      "Ġnod": 8400,
      "Ġglass": 8401,
      "Ġacqua": 8402,
      "Ġraggiunge": 8403,
      "andolo": 8404,
      "ĠLouis": 8405,
      "Ġcielo": 8406,
      "Ġdiede": 8407,
      "Ġthousands": 8408,
      "ĠCant": 8409,
      "Ġicon": 8410,
      "Fra": 8411,
      "landa": 8412,
      "Ġleadership": 8413,
      "ĠRoyal": 8414,
      "Ġconsigli": 8415,
      "Ġcampi": 8416,
      "Ġarts": 8417,
      "ectors": 8418,
      "Ġminori": 8419,
      "ĠJan": 8420,
      "ĠGiulio": 8421,
      "Ġcharacteristics": 8422,
      "Ġtrasmissione": 8423,
      "oven": 8424,
      "Ġcreazione": 8425,
      "Ġdoveva": 8426,
      "Ġprovenienti": 8427,
      "ĠMatt": 8428,
      "Ġleads": 8429,
      "gere": 8430,
      "Ġavvers": 8431,
      "ĠAwards": 8432,
      "Ġfeedback": 8433,
      "ĠMiddle": 8434,
      "Ġcontact": 8435,
      "Cons": 8436,
      "Ġaccount": 8437,
      "Ġpassed": 8438,
      "Ġmeals": 8439,
      "ĠRadio": 8440,
      "Ġtela": 8441,
      "ĠShow": 8442,
      "ĠNicola": 8443,
      "amentale": 8444,
      "Ġweather": 8445,
      "Ġstake": 8446,
      "Ġeffic": 8447,
      "Ġwriters": 8448,
      "ĠlibertÃł": 8449,
      "rics": 8450,
      "93": 8451,
      "ĠSti": 8452,
      "Ġ1959": 8453,
      "Ġcontatto": 8454,
      "antino": 8455,
      "Ġincontra": 8456,
      "Ġ1958": 8457,
      "Ġwit": 8458,
      "ĠNet": 8459,
      "ĠRam": 8460,
      "Ġsit": 8461,
      "Ġsoil": 8462,
      "Ġconfig": 8463,
      "Ġmoving": 8464,
      "Ġvehic": 8465,
      "Ġedifici": 8466,
      "ĠEss": 8467,
      "orea": 8468,
      "itazioni": 8469,
      "ĠGeorg": 8470,
      "Ġpartecipazione": 8471,
      "Ġpellic": 8472,
      "unts": 8473,
      "Ġconnecting": 8474,
      "Ġeveryday": 8475,
      "Ġcosta": 8476,
      "mod": 8477,
      "Ġregionale": 8478,
      "ĠAmeric": 8479,
      "Ġtransc": 8480,
      "Ġregulations": 8481,
      "Ġpassare": 8482,
      "elet": 8483,
      "Ġcivili": 8484,
      "ilica": 8485,
      "ĠCass": 8486,
      "Ġdetta": 8487,
      "ĠXVIII": 8488,
      "iams": 8489,
      "Ġimplementing": 8490,
      "dizione": 8491,
      "ĠSus": 8492,
      "ĠVII": 8493,
      "Ġcircumstances": 8494,
      "Ġrh": 8495,
      "uncia": 8496,
      "Ġtermini": 8497,
      "ĠGlo": 8498,
      "Ġproduttore": 8499,
      "erous": 8500,
      "Ġformula": 8501,
      "`.": 8502,
      "ĠPu": 8503,
      "Ġworth": 8504,
      "Ġgaranti": 8505,
      "ĠChampionship": 8506,
      "Ġprivata": 8507,
      "zialmente": 8508,
      "erti": 8509,
      "Ġfocusing": 8510,
      "Formazione": 8511,
      "Ġwait": 8512,
      "Ġtrono": 8513,
      "ĠFinally": 8514,
      "Ġjoy": 8515,
      "order": 8516,
      "CI": 8517,
      "esthe": 8518,
      "Ġdevice": 8519,
      "ĠWhite": 8520,
      "ryp": 8521,
      "ĠCasa": 8522,
      "nific": 8523,
      "Ġcommerciale": 8524,
      "Ġsymbols": 8525,
      "Ġchemical": 8526,
      "Ġsv": 8527,
      "Ġtradizionale": 8528,
      "alieri": 8529,
      "Ġstruggles": 8530,
      "ĠHam": 8531,
      "Ġminds": 8532,
      "Ġresti": 8533,
      "Ġtum": 8534,
      "Ġcontesto": 8535,
      "Ġregioni": 8536,
      "ography": 8537,
      "Ġplayers": 8538,
      "chen": 8539,
      "ĠValle": 8540,
      "aldi": 8541,
      "Na": 8542,
      "Ġriguarda": 8543,
      "ĠRog": 8544,
      "aph": 8545,
      "ĠSab": 8546,
      "Ġexercises": 8547,
      "Ġraggiunto": 8548,
      "Ġcompetizione": 8549,
      "Ġwon": 8550,
      "Ġedizioni": 8551,
      "ye": 8552,
      "aven": 8553,
      "ĠBruno": 8554,
      "ossi": 8555,
      "Ġlibero": 8556,
      "makers": 8557,
      "ianc": 8558,
      "Ġhumanity": 8559,
      "Ġnap": 8560,
      "Ġfish": 8561,
      "\"),": 8562,
      "Ġachiev": 8563,
      "Ġhappen": 8564,
      "Ġgoes": 8565,
      "ivity": 8566,
      "Ġvoices": 8567,
      "endono": 8568,
      "Ġgenerate": 8569,
      "ĠContea": 8570,
      "Ġmagic": 8571,
      "Ġstandards": 8572,
      "orificenze": 8573,
      "Ġgenitori": 8574,
      "ightly": 8575,
      "Ġsn": 8576,
      "venture": 8577,
      "Ġ1956": 8578,
      "ums": 8579,
      "Ġexchange": 8580,
      "Ġincreasing": 8581,
      "Ġsigns": 8582,
      "lesi": 8583,
      "Ġfesta": 8584,
      "ĠQuesti": 8585,
      "ĠBack": 8586,
      "ĠCu": 8587,
      "idenza": 8588,
      "ĠJoe": 8589,
      "inv": 8590,
      "olesc": 8591,
      "Ġrunning": 8592,
      "Ġstava": 8593,
      "Ġcy": 8594,
      "Ġthing": 8595,
      "Ġreceive": 8596,
      "Ġsottop": 8597,
      "ĠSeries": 8598,
      "Ã¢": 8599,
      "Ġencouraging": 8600,
      "====": 8601,
      "67": 8602,
      "Ġelectric": 8603,
      "Mus": 8604,
      "loc": 8605,
      "Ġparad": 8606,
      "ĠGugli": 8607,
      "scar": 8608,
      "Ġcilind": 8609,
      "Ġoperazioni": 8610,
      "Ġincrease": 8611,
      "Ġ1940": 8612,
      "Ġneut": 8613,
      "forme": 8614,
      "ding": 8615,
      "Ġsoluzione": 8616,
      "Ġportare": 8617,
      "Ġcomfort": 8618,
      "Alla": 8619,
      "Next": 8620,
      "arity": 8621,
      "Ġpartecipanti": 8622,
      "Ġhappy": 8623,
      "Ġadventures": 8624,
      "Ġinterconnected": 8625,
      "84": 8626,
      "arrivo": 8627,
      "Ġobstacles": 8628,
      "Ġalb": 8629,
      "1987": 8630,
      "Produzione": 8631,
      "Ġintr": 8632,
      "Ġtaken": 8633,
      "Ġparent": 8634,
      "Ġjoin": 8635,
      "ĠNonostante": 8636,
      "hington": 8637,
      "Ġcareer": 8638,
      "Ġsimbolo": 8639,
      "heim": 8640,
      "ĠEast": 8641,
      "Und": 8642,
      "Ġsoldi": 8643,
      "atre": 8644,
      "Ġstrutture": 8645,
      "Ġcostretto": 8646,
      "||": 8647,
      "Ġdiam": 8648,
      "Ġcomin": 8649,
      "Ġufficialmente": 8650,
      "Ġatto": 8651,
      "Ġincar": 8652,
      "olate": 8653,
      "While": 8654,
      "Ġcongi": 8655,
      "53": 8656,
      "2018": 8657,
      "Ġcontributions": 8658,
      "Ġcities": 8659,
      "Ġfotogra": 8660,
      "ulare": 8661,
      "ĠChina": 8662,
      "Ġnom": 8663,
      "ĠMari": 8664,
      "Ġdevelopments": 8665,
      "Ġut": 8666,
      "osizioni": 8667,
      "Ġcelebre": 8668,
      "Ġzero": 8669,
      "Ġtrasporto": 8670,
      "Ġnego": 8671,
      "Ġath": 8672,
      "ĠPio": 8673,
      "Ġintegrating": 8674,
      "Ġbambino": 8675,
      "titute": 8676,
      "Ġfossero": 8677,
      "Ġconsecu": 8678,
      "Ġpure": 8679,
      "Ġtorre": 8680,
      "adori": 8681,
      "Ġfondamentale": 8682,
      "Ġdelves": 8683,
      "known": 8684,
      "Ġtack": 8685,
      "ecuzione": 8686,
      "1988": 8687,
      "ĠArti": 8688,
      "enco": 8689,
      "Ġweek": 8690,
      "Ġdefinitivamente": 8691,
      "Ġpuzz": 8692,
      "ĠFrench": 8693,
      "Ġcosti": 8694,
      "Ġdiscussion": 8695,
      "kson": 8696,
      "ĠCittÃł": 8697,
      "Ġfunzioni": 8698,
      "titioners": 8699,
      "ĠTechni": 8700,
      "ĠOrig": 8701,
      "ĠXII": 8702,
      "Ġmonte": 8703,
      "Ġunity": 8704,
      "Ġlayer": 8705,
      "itement": 8706,
      "ĠVers": 8707,
      "arsa": 8708,
      "Ġmessage": 8709,
      "Ġmemories": 8710,
      "ĠCommon": 8711,
      "yal": 8712,
      "Ġpossa": 8713,
      "Ġpressing": 8714,
      "arne": 8715,
      "Ġtree": 8716,
      "Ġoutput": 8717,
      "Ġ1957": 8718,
      "Ġhab": 8719,
      "ĠSum": 8720,
      "Ġdesider": 8721,
      "ĠKnow": 8722,
      "landese": 8723,
      "Ġpod": 8724,
      "Ġpictures": 8725,
      "ĠLondon": 8726,
      "Ġflavors": 8727,
      "nel": 8728,
      "Ter": 8729,
      "ĠEvery": 8730,
      "Ġresponsib": 8731,
      "ĠBerlino": 8732,
      "Ġattualmente": 8733,
      "Ġmedico": 8734,
      "Prima": 8735,
      "taining": 8736,
      "tualmente": 8737,
      "Ġguad": 8738,
      "attore": 8739,
      "Ġplans": 8740,
      "ĠSing": 8741,
      "Ġact": 8742,
      "Ġtransportation": 8743,
      "vin": 8744,
      "Ġeventually": 8745,
      "Inf": 8746,
      "ĠSuccessivamente": 8747,
      "Ġrinn": 8748,
      "Ġaccett": 8749,
      "57": 8750,
      "Ġnasce": 8751,
      "ĠMondi": 8752,
      "Ġfamoso": 8753,
      "Ġavvic": 8754,
      "Ġfoods": 8755,
      "Ġchosen": 8756,
      "tise": 8757,
      "ĠXVII": 8758,
      "ĠEff": 8759,
      "Ġavesse": 8760,
      "nesses": 8761,
      "ĠJohnson": 8762,
      "Ġcose": 8763,
      "ĠMassimo": 8764,
      "64": 8765,
      "ĠVo": 8766,
      "ĠWood": 8767,
      "ĠChic": 8768,
      "Accademia": 8769,
      "BC": 8770,
      "ige": 8771,
      "Ġragazzi": 8772,
      "Ġeating": 8773,
      "ĠAssoci": 8774,
      "ifinali": 8775,
      "Pa": 8776,
      "agra": 8777,
      "Ġintitolato": 8778,
      "Ġfianco": 8779,
      "Orig": 8780,
      "bby": 8781,
      "ĠSimon": 8782,
      "ogno": 8783,
      "ĠVill": 8784,
      "Ġdang": 8785,
      "Ġparamet": 8786,
      "Ġeleg": 8787,
      "Ġimb": 8788,
      "Ġinfluences": 8789,
      "Ġcostante": 8790,
      "ĠStan": 8791,
      "Pol": 8792,
      "Ġpick": 8793,
      "ĠImm": 8794,
      "Ġvice": 8795,
      "ĠveritÃł": 8796,
      "Ġattuale": 8797,
      "Ġbonds": 8798,
      "urse": 8799,
      "Ġapproxim": 8800,
      "tagli": 8801,
      "Ġprofond": 8802,
      "Ġandata": 8803,
      "Ġ90": 8804,
      "Af": 8805,
      "Ġviaggi": 8806,
      "Ġinternet": 8807,
      "ĠLive": 8808,
      "ĠlÃ¬": 8809,
      "Ġvision": 8810,
      "ĠJul": 8811,
      "Ġregina": 8812,
      "Ġsolve": 8813,
      "Ġsvolge": 8814,
      "osis": 8815,
      "Ã£": 8816,
      "Ġintellec": 8817,
      "ains": 8818,
      "Tit": 8819,
      "oriz": 8820,
      "essero": 8821,
      "Ġmista": 8822,
      "inations": 8823,
      "ĠManagement": 8824,
      "endolo": 8825,
      "Ġlisten": 8826,
      "ego": 8827,
      "Ġfreedom": 8828,
      "Ġdenom": 8829,
      "kins": 8830,
      "Ġdetermination": 8831,
      "ĠFun": 8832,
      "Ġmission": 8833,
      "Ġincontro": 8834,
      "ĠSpe": 8835,
      "Ġthreats": 8836,
      "ĠArc": 8837,
      "ĠTol": 8838,
      "\").": 8839,
      "Ġtaste": 8840,
      "Ġresistenza": 8841,
      "asure": 8842,
      "operazione": 8843,
      "Ġconsid": 8844,
      "Ġblu": 8845,
      "Ġdatas": 8846,
      "Ġvivo": 8847,
      "ranno": 8848,
      "Ġtratt": 8849,
      "ĠâĶĤ": 8850,
      "OU": 8851,
      "Ġspot": 8852,
      "Ġbuy": 8853,
      "Ġworked": 8854,
      "Ġseparate": 8855,
      "Ġinteract": 8856,
      "yr": 8857,
      "Ġcombining": 8858,
      "Ġrandom": 8859,
      "Ġhomes": 8860,
      "Ġefficient": 8861,
      "Ġmeeting": 8862,
      "utazione": 8863,
      "Ġcultivate": 8864,
      "Ġsignificato": 8865,
      "Ġlingue": 8866,
      "Ġvenivano": 8867,
      "ĠMis": 8868,
      "Ġrecuper": 8869,
      "Ġexcitement": 8870,
      "odici": 8871,
      "ios": 8872,
      "ĠWilliams": 8873,
      "Ġproperty": 8874,
      "Ġcritically": 8875,
      "91": 8876,
      "Ġ32": 8877,
      "Ġcomfortable": 8878,
      "Ġfeels": 8879,
      "Ġriprese": 8880,
      "Ġsupporto": 8881,
      "arness": 8882,
      "68": 8883,
      "ĠWestern": 8884,
      "You": 8885,
      "Ġregol": 8886,
      "Ġgod": 8887,
      "ĠXIV": 8888,
      "ĠTimmy": 8889,
      "noc": 8890,
      "Ġaer": 8891,
      "Ġdiving": 8892,
      "Ġpurpose": 8893,
      "Ġfondato": 8894,
      "ĠpartecipÃ²": 8895,
      "pres": 8896,
      "Ġgiudi": 8897,
      "Ġwent": 8898,
      "ĠSco": 8899,
      "Ġpartecipa": 8900,
      "Ġstadio": 8901,
      "gni": 8902,
      "Ġattemp": 8903,
      "Ġhop": 8904,
      "58": 8905,
      "ĠOlimpia": 8906,
      "Despite": 8907,
      "operto": 8908,
      "Ġdurata": 8909,
      "Ġcapital": 8910,
      "Ġwrong": 8911,
      "Ġapplying": 8912,
      "Ġamore": 8913,
      "ĠdÃł": 8914,
      "je": 8915,
      "Ġstrategy": 8916,
      "Ġsave": 8917,
      "reek": 8918,
      "Ġhabitat": 8919,
      "Rom": 8920,
      "oscana": 8921,
      "ĠBrown": 8922,
      "Ġtrees": 8923,
      "Ġfred": 8924,
      "ĠKo": 8925,
      "ĠAdri": 8926,
      "Ġghia": 8927,
      "Ġdimin": 8928,
      "Ġrisposta": 8929,
      "Ġsla": 8930,
      "atten": 8931,
      "Ġmetodo": 8932,
      "PS": 8933,
      "Ġomon": 8934,
      "Ġdemonstrate": 8935,
      "ĠBest": 8936,
      "ÃŃa": 8937,
      "tenance": 8938,
      "Ġconversation": 8939,
      "Ġmyth": 8940,
      "ĠJewish": 8941,
      "Ġcollection": 8942,
      "eguire": 8943,
      "Ġteachers": 8944,
      "Ġlov": 8945,
      "ois": 8946,
      "Ġusando": 8947,
      "Ġpromin": 8948,
      "Ġdanni": 8949,
      "ĠDivisione": 8950,
      "Ġhous": 8951,
      "Ġapart": 8952,
      "ĠTerm": 8953,
      "Ġscenarios": 8954,
      "rann": 8955,
      "Ġalp": 8956,
      "ĠApplic": 8957,
      "glia": 8958,
      "aches": 8959,
      "Remember": 8960,
      "Ġmuseo": 8961,
      "tering": 8962,
      "Ġdeveloped": 8963,
      "Ġrelia": 8964,
      "ĠSard": 8965,
      "Ġnulla": 8966,
[...]
